{"version":"1.0","truncation":null,"padding":null,"added_tokens":[{"id":0,"special":true,"content":"<s>","single_word":false,"lstrip":false,"rstrip":false,"normalized":false},{"id":1,"special":true,"content":"<pad>","single_word":false,"lstrip":false,"rstrip":false,"normalized":false},{"id":2,"special":true,"content":"</s>","single_word":false,"lstrip":false,"rstrip":false,"normalized":false},{"id":3,"special":true,"content":"<unk>","single_word":false,"lstrip":false,"rstrip":false,"normalized":false},{"id":4,"special":true,"content":"<mask>","single_word":false,"lstrip":false,"rstrip":false,"normalized":false}],"normalizer":null,"pre_tokenizer":{"type":"ByteLevel","add_prefix_space":false,"trim_offsets":true},"post_processor":{"type":"ByteLevel","add_prefix_space":true,"trim_offsets":false},"decoder":{"type":"ByteLevel","add_prefix_space":true,"trim_offsets":true},"model":{"type":"BPE","dropout":null,"unk_token":null,"continuing_subword_prefix":null,"end_of_word_suffix":null,"fuse_unk":false,"vocab":{"<s>":0,"<pad>":1,"</s>":2,"<unk>":3,"<mask>":4,"!":5,"\"":6,"#":7,"$":8,"%":9,"&":10,"'":11,"(":12,")":13,"*":14,"+":15,",":16,"-":17,".":18,"/":19,"0":20,"1":21,"2":22,"3":23,"4":24,"5":25,"6":26,"7":27,"8":28,"9":29,":":30,";":31,"<":32,"=":33,">":34,"?":35,"@":36,"A":37,"B":38,"C":39,"D":40,"E":41,"F":42,"G":43,"H":44,"I":45,"J":46,"K":47,"L":48,"M":49,"N":50,"O":51,"P":52,"Q":53,"R":54,"S":55,"T":56,"U":57,"V":58,"W":59,"X":60,"Y":61,"Z":62,"[":63,"\\":64,"]":65,"^":66,"_":67,"`":68,"a":69,"b":70,"c":71,"d":72,"e":73,"f":74,"g":75,"h":76,"i":77,"j":78,"k":79,"l":80,"m":81,"n":82,"o":83,"p":84,"q":85,"r":86,"s":87,"t":88,"u":89,"v":90,"w":91,"x":92,"y":93,"z":94,"{":95,"|":96,"}":97,"~":98,"¡":99,"¢":100,"£":101,"¤":102,"¥":103,"¦":104,"§":105,"¨":106,"©":107,"ª":108,"«":109,"¬":110,"®":111,"¯":112,"°":113,"±":114,"²":115,"³":116,"´":117,"µ":118,"¶":119,"·":120,"¸":121,"¹":122,"º":123,"»":124,"¼":125,"½":126,"¾":127,"¿":128,"À":129,"Á":130,"Â":131,"Ã":132,"Ä":133,"Å":134,"Æ":135,"Ç":136,"È":137,"É":138,"Ê":139,"Ë":140,"Ì":141,"Í":142,"Î":143,"Ï":144,"Ð":145,"Ñ":146,"Ò":147,"Ó":148,"Ô":149,"Õ":150,"Ö":151,"×":152,"Ø":153,"Ù":154,"Ú":155,"Û":156,"Ü":157,"Ý":158,"Þ":159,"ß":160,"à":161,"á":162,"â":163,"ã":164,"ä":165,"å":166,"æ":167,"ç":168,"è":169,"é":170,"ê":171,"ë":172,"ì":173,"í":174,"î":175,"ï":176,"ð":177,"ñ":178,"ò":179,"ó":180,"ô":181,"õ":182,"ö":183,"÷":184,"ø":185,"ù":186,"ú":187,"û":188,"ü":189,"ý":190,"þ":191,"ÿ":192,"Ā":193,"ā":194,"Ă":195,"ă":196,"Ą":197,"ą":198,"Ć":199,"ć":200,"Ĉ":201,"ĉ":202,"Ċ":203,"ċ":204,"Č":205,"č":206,"Ď":207,"ď":208,"Đ":209,"đ":210,"Ē":211,"ē":212,"Ĕ":213,"ĕ":214,"Ė":215,"ė":216,"Ę":217,"ę":218,"Ě":219,"ě":220,"Ĝ":221,"ĝ":222,"Ğ":223,"ğ":224,"Ġ":225,"ġ":226,"Ģ":227,"ģ":228,"Ĥ":229,"ĥ":230,"Ħ":231,"ħ":232,"Ĩ":233,"ĩ":234,"Ī":235,"ī":236,"Ĭ":237,"ĭ":238,"Į":239,"į":240,"İ":241,"ı":242,"Ĳ":243,"ĳ":244,"Ĵ":245,"ĵ":246,"Ķ":247,"ķ":248,"ĸ":249,"Ĺ":250,"ĺ":251,"Ļ":252,"ļ":253,"Ľ":254,"ľ":255,"Ŀ":256,"ŀ":257,"Ł":258,"ł":259,"Ń":260,"||":261,"Ġt":262,"|||":263,"Ġth":264,"ou":265,".|||":266,"Ġa":267,"in":268,"re":269,"Ġw":270,"at":271,"Ġs":272,"Ġthe":273,"Ġy":274,"Ġyou":275,"Ġo":276,"Ġi":277,"Ġto":278,"er":279,"ing":280,"Ġd":281,"Ġg":282,"Ġh":283,"nd":284,"Ġb":285,"Ġm":286,"es":287,"Ġf":288,"?|||":289,"Ġp":290,"Ġc":291,"ve":292,"on":293,"an":294,"le":295,"Ġthat":296,"Ġand":297,"Ġn":298,"ĠI":299,"hat":300,"Ġgo":301,"ll":302,"ow":303,"or":304,"is":305,"Ġit":306,"'s":307,"se":308,"th":309,"Ġon":310,"Ġis":311,"en":312,"Ġha":313,"ti":314,"ay":315,"Ġof":316,"Ġdo":317,"Ġl":318,"ig":319,"ar":320,"Ġwe":321,"Ġe":322,"Ġbe":323,"id":324,"ac":325,"st":326,"om":327,"Th":328,"Ġthis":329,"al":330,"Ġin":331,"Ġhave":332,"ere":333,"igh":334,"Ġ1":335,"Ġr":336,"Ġu":337,"ke":338,"ld":339,"ight":340,"Ġgoing":341,"Ġwhat":342,"'re":343,"Ġyour":344,"Ġone":345,"ould":346,"ed":347,"it":348,"Ġwh":349,"et":350,"out":351,"ot":352,"ic":353,"Ġan":354,"qu":355,"You":356,"Ġwi":357,"Ġre":358,"Ġare":359,"Ġright":360,"tion":361,"Ġso":362,"ut":363,"Ġj":364,"as":365,"wo":366,"ome":367,"What":368,"Ġsh":369,"Ġne":370,"ver":371,"Ġst":372,"um":373,"pl":374,"Ġfor":375,"ad":376,"'t":377,"Ġdid":378,"ust":379,"Ġwith":380,"Ġtwo":381,"Ġcan":382,"ec":383,"our":384,"Ġk":385,"Yes":386,"ber":387,"oo":388,"Ġab":389,"Ġme":390,"ree":391,"We":392,"kay":393,"am":394,"'m":395,"ir":396,"ro":397,"Ġup":398,"Ġjust":399,"ive":400,"ul":401,"art":402,"im":403,"Ġhere":404,"Ġkn":405,"Ġnot":406,"au":407,"Ġat":408,"king":409,"Ġfr":410,"Ġnum":411,"ike":412,"Ġget":413,"Ġwould":414,"Ġthen":415,"Ġif":416,"ant":417,"Ġ2":418,"Ġabout":419,"Ġknow":420,"Ġhow":421,"It":422,"Ġlike":423,"ce":424,"ause":425,"ble":426,"ion":427,"Ġnumber":428,"Okay":429,"all":430,"Ġse":431,"od":432,"Ġthin":433,"Ġex":434,"Ġ3":435,"ake":436,"Ġor":437,"Ġdon":438,"Ġdi":439,"Ġthere":440,"Ġout":441,"Ġpro":442,"Ġsome":443,"ly":444,"ther":445,"Ġgot":446,"That":447,"Ġwant":448,"Ġwor":449,"ent":450,"The":451,"Ġthree":452,"act":453,"Ġas":454,"Ġbec":455,"00":456,"If":457,"are":458,"No":459,"Ġqu":460,"ose":461,"Ġle":462,"ation":463,"Ġbecause":464,"ook":465,"ally":466,"sw":467,"ulti":468,"ra":469,"Ġwas":470,"Ġansw":471,"Ġhe":472,"ure":473,"All":474,"Ġanswer":475,"Wh":476,"Ġmy":477,"Ġneed":478,"--":479,"Ġtim":480,"Ġmulti":481,"ct":482,"ter":483,"ack":484,"ge":485,"Ġsee":486,"Ġequ":487,"ch":488,"Ġthink":489,"Ġall":490,"Ġpart":491,"ore":492,"ind":493,"ple":494,"Ġmultipl":495,"rou":496,"Ġbut":497,"Ġwho":498,"and":499,"ell":500,"nt":501,"Ġthey":502,"Ġx":503,"Ġfour":504,"ame":505,"Ġby":506,"action":507,"us":508,"ase":509,"ite":510,"ine":511,"Ġpl":512,"Ġwr":513,"Ġ4":514,"Ġfact":515,"Ġtr":516,"ur":517,"dd":518,"How":519,"Ġthing":520,"Ġsay":521,"Ġfraction":522,"ate":523,"very":524,"ĠX":525,"thing":526,"ain":527,"Ġover":528,"Ġlook":529,"Ġthose":530,"So":531,"Ġuse":532,"irst":533,"'ve":534,"os":535,"Ġthem":536,"Ġ.|||":537,"Ġway":538,"This":539,"Ġ5":540,"Do":541,"blem":542,"ep":543,"Ġfactor":544,"Ġproblem":545,"Ġch":546,"Ġmake":547,"ff":548,"Ġwhen":549,"Ġcould":550,"Ġshould":551,"Ġfirst":552,"Then":553,"Ġgu":554,"gh":555,"ess":556,"Ġwhole":557,"Ġwork":558,"Ġtimes":559,"Ġbo":560,"ol":561,"un":562,"Ġpa":563,"ner":564,"ie":565,"Ġnow":566,"Ġdoes":567,"Ġdiv":568,"Ġsame":569,"ard":570,"Ġtal":571,"Ġmultiply":572,"Ġadd":573,"em":574,"Ġmat":575,"ide":576,"ody":577,"body":578,"Ġdoing":579,"Ġthan":580,"ph":581,"int":582,"estion":583,"Ġcl":584,"Ġsa":585,"'ll":586,"Ġthese":587,"ach":588,"Ġany":589,"Ġcom":590,"Ġput":591,"ĠA":592,"el":593,"Ġguy":594,"Ġour":595,"ang":596,"Ġexpl":597,"Ġequal":598,"Ġz":599,"Ġquestion":600,"Ġpartner":601,"Ġback":602,"Now":603,"Ġal":604,"ator":605,"Ġman":606,"Ġwill":607,"Ġ10":608,"Ġmany":609,"Ġ6":610,"itt":611,"Ġstart":612,"Ġzer":613,"Ġother":614,"ven":615,"ue":616,"Ġv":617,"Ġfind":618,"Ġdiff":619,"ub":620,"Ġfive":621,"Let":622,"one":623,"Ġsomething":624,"ab":625,"own":626,"Ġint":627,"pp":628,"Ġcome":629,"ix":630,"Ġmin":631,"Ġdiffere":632,"Ġwrite":633,"Ġmore":634,"ich":635,"Ġper":636,"Ġpo":637,"Ġcon":638,"quare":639,"day":640,"Ġsaid":641,"ative":642,"xt":643,"roup":644,"iz":645,"pt":646,"Ġhas":647,"gative":648,"Ġwere":649,"Ġdone":650,"Ġgroup":651,"Ġdown":652,"There":653,"lease":654,"if":655,"Ġsquare":656,"lf":657,"Ġshow":658,"Ġta":659,"nder":660,"10":661,"Ġno":662,"est":663,"Ġgive":664,"Ġmean":665,"ths":666,"Is":667,"Ġtell":668,"Ġtake":669,"urn":670,"Ġreally":671,"uch":672,"Ġfrom":673,"son":674,"Ġguys":675,"Ġexplain":676,"Ġzero":677,"Ġlitt":678,"Ġus":679,"Ġlittle":680,"Ġevery":681,"ick":682,"Ġfig":683,"Ġnegative":684,"nds":685,"Ġthinking":686,"Oh":687,"Ġmuch":688,"per":689,"Ġmath":690,"On":691,"When":692,"Ġunder":693,"Ġinto":694,"Ġ8":695,"Ġwhy":696,"Ġag":697,"ank":698,"Ġfigure":699,"Ġtry":700,"ĠC":701,"oc":702,"ĠB":703,"ry":704,"Ġ7":705,"raph":706,"cept":707,"Ġdifferent":708,"Ġwhere":709,"Ġstr":710,"way":711,"Ġnext":712,"Ġlet":713,"Ġtime":714,"Ġsure":715,"Ġwhich":716,"ead":717,"pe":718,"Thank":719,"Ġeach":720,"Ġsix":721,"Ġhad":722,"Ġ-":723,"Ġsol":724,"Ġgood":725,"Can":726,"Ġplease":727,"Ġread":728,"Ġte":729,"ction":730,"Ġpr":731,"Ġ9":732,"ible":733,"tic":734,"Ġro":735,"ctu":736,"ound":737,"Ġstep":738,"Ġturn":739,"Ġam":740,"Ġgraph":741,"Ġpar":742,"Ġnumbers":743,"tice":744,"Ġform":745,"Ġpi":746,"Sh":747,"ough":748,"ist":749,"lp":750,"Ġhelp":751,"Ġ12":752,"Ġokay":753,"ak":754,"ked":755,"stand":756,"Ġco":757,"les":758,"Ġloo":759,"They":760,"Ġhalf":761,"-|||":762,"iv":763,"Ġtalk":764,"ember":765,"Ġmo":766,"Ġshare":767,"Ġpiec":768,"Ġsec":769,"âĢ":770,"ĠJ":771,"Ġunderstand":772,"Ġpoint":773,"Ġ30":774,"ecause":775,"Ġexam":776,"ies":777,"Ġ00":778,"Ġactu":779,"ice":780,"ical":781,"ast":782,"Ġboth":783,"ong":784,"âĢĻ":785,"ense":786,"Ġminut":787,"tercept":788,"ace":789,"12":790,"Ġsense":791,"Ġproblems":792,"--|||":793,"Ġ[":794,"raw":795,"Ġequation":796,"omin":797,"angle":798,"Because":799,"Ġ\"":800,"Ġtoday":801,"Ġshe":802,"rough":803,"Ġline":804,"Ġun":805,"Ġpage":806,"tive":807,"Ġcal":808,"Ġden":809,"ominator":810,"Ġfrie":811,"Ġfe":812,"Ġdenominator":813,"tim":814,"In":815,"An":816,"Ġlooking":817,"Ġdivid":818,"Ġoff":819,"Ġthrough":820,"Ġdidn":821,"Ġ20":822,"ass":823,"Ġfractions":824,"ellig":825,"Ġless":826,"unint":827,"elligible":828,"unintelligible":829,"Ġactually":830,"Ġroot":831,"Go":832,"Ġmod":833,"Ġdec":834,"Ġeight":835,"arn":836,"Here":837,"Ġplus":838,"Ġstu":839,"ect":840,"Ġseco":841,"ort":842,"Ġrad":843,"Ġonly":844,"gether":845,"One":846,"ĠM":847,"ateg":848,"Ġlot":849,"Ġrem":850,"Well":851,"Does":852,"reat":853,"Ġarea":854,"Ġtogether":855,"Ġthings":856,"Ġbl":857,"te":858,"ley":859,"Ġthough":860,"Ġdraw":861,"Ġval":862,"Ġeven":863,"ag":864,"ait":865,"Ġstrateg":866,"Right":867,"be":868,"eo":869,"tr":870,"Ġsp":871,"Ġtable":872,"ia":873,"op":874,"rect":875,"Ġword":876,"irc":877,"Ġ$":878,"Ġexample":879,"Ġmay":880,"other":881,"Ġfun":882,"so":883,"Ġexp":884,"Ġcirc":885,"Ġyes":886,"orrect":887,"Ġtoo":888,"ĠY":889,"eople":890,"Ġpos":891,"intercept":892,"Ġsub":893,"Ġable":894,"ip":895,"He":896,"Did":897,"Ġid":898,"Ġes":899,"il":900,"Ġgoes":901,"Ġsolve":902,"Ġrect":903,"Ġpaper":904,"Ġside":905,"Ġlearn":906,"Ġtalking":907,"Ġend":908,"Ġmeans":909,"Ġmight":910,"Ġmultiplying":911,"ave":912,"Ġradical":913,"led":914,"Ġeverybody":915,"Ġequals":916,"Ġtheir":917,"Ġquestions":918,"Ġke":919,"Ġpeople":920,"ise":921,"Ġanswers":922,"itive":923,"Ġanother":924,"Ġjo":925,"ers":926,"Ġdis":927,"ks":928,"ication":929,"read":930,"Ġagree":931,"ty":932,"'d":933,"ents":934,"Ġsays":935,"Ġ15":936,"Ġdoesn":937,"Ġdivide":938,"Ġbu":939,"Why":940,"Ġpieces":941,"Ġeas":942,"head":943,"ards":944,"ving":945,"ting":946,"Ġfin":947,"atic":948,"Ġhapp":949,"Ġvalue":950,"Ġcorrect":951,"Ġsecond":952,"Ġahead":953,"ug":954,"Ġsim":955,"Ġcub":956,"ft":957,"Ġbet":958,"Ġteam":959,"Ġvery":960,"age":961,"Ġestim":962,"fore":963,"ish":964,"ĠK":965,"Â²":966,"erm":967,"Ġ18":968,"Ġround":969,"adr":970,"ade":971,"Ġsubtr":972,"ied":973,"Ġleft":974,"ull":975,"Ġfunction":976,"St":977,"Ġseven":978,"cess":979,"old":980,"Are":981,"Ġsu":982,"Ġhappen":983,"eck":984,"Who":985,"Two":986,"Ġtop":987,"Ġde":988,"Ġang":989,"Ġquadr":990,"Ġperson":991,"Ġpositive":992,"Ġprac":993,"Ġrectangle":994,"Three":995,"Ġmove":996,"Ġpre":997,"Ġmultiplication":998,"Ġbig":999,"akes":1000,"Where":1001,"imal":1002,"Ġworking":1003,"uct":1004,"Ġminutes":1005,"Any":1006,"Ġcou":1007,"Ġ+":1008,"nal":1009,"Ġgr":1010,"Ġfriends":1011,"Ġgreat":1012,"Just":1013,"ournal":1014,"Ġim":1015,"Ġalso":1016,"Ġdecimal":1017,"ĠR":1018,"Ġel":1019,"Ġtest":1020,"Ġjob":1021,"Ġbefore":1022,"ways":1023,"till":1024,"red":1025,"Ġ100":1026,"Ġkind":1027,"Ġsubtract":1028,"Ġdivided":1029,"alk":1030,"Ġquick":1031,"zz":1032,"ower":1033,"Ġlast":1034,"Ġterm":1035,"emember":1036,"orry":1037,"Ġagain":1038,"\"|||":1039,"Ġsaying":1040,"fter":1041,"Ġkeep":1042,"Ġstill":1043,"Ġfinish":1044,"Ġsy":1045,"ision":1046,"Ġten":1047,"Ġstud":1048,"ready":1049,"Ġelse":1050,"Ġask":1051,"Ġfactors":1052,"Ġchan":1053,"Ġjournal":1054,"Remember":1055,"Ġalready":1056,"ink":1057,"Ġpic":1058,"Ġ16":1059,"Ġunit":1060,"Every":1061,"ew":1062,"round":1063,"Ġstrategy":1064,"ĠS":1065,"Ġma":1066,"ically":1067,"Ġprod":1068,"Ġplace":1069,"pre":1070,"nce":1071,"ify":1072,"Ġstand":1073,"Fr":1074,"lent":1075,"ird":1076,"Ġminus":1077,"Ġmodel":1078,"For":1079,"Ġ=":1080,"Ã·":1081,"Ġusing":1082,"Ġquadratic":1083,"Ġplay":1084,"Ġcircle":1085,"Look":1086,"Ġdivision":1087,"ial":1088,"Ġset":1089,"ize":1090,"Ġremember":1091,"Ġ.":1092,"Ġcol":1093,"Ġnine":1094,"Ġknew":1095,"Ġord":1096,"Ġlong":1097,"Ġfl":1098,"Ġpower":1099,"we":1100,"Ġbit":1101,"Ġ50":1102,"Ġproduct":1103,"Ġaround":1104,"Ġlist":1105,"Ġcheck":1106,"Ġ0":1107,"Ġmakes":1108,"Ġbas":1109,"Ġtot":1110,"Ġpractice":1111,"erator":1112,"cul":1113,"Ġnumerator":1114,"ular":1115,"ture":1116,"Ġpicture":1117,"Ġcomp":1118,"abel":1119,"Ġcalcul":1120,"Ġtrying":1121,"Ġfeel":1122,"Ġcomm":1123,"Ġalways":1124,"umb":1125,"Ġaway":1126,"fect":1127,"Ex":1128,"ply":1129,"Ġide":1130,"Ġsit":1131,"Ġbeing":1132,"Ġimp":1133,"Ġafter":1134,"Your":1135,"Ġtool":1136,"Ġreal":1137,"Ġrev":1138,"Ġanything":1139,"Some":1140,"ger":1141,"sion":1142,"Ġasking":1143,"Four":1144,"aring":1145,"Ġangle":1146,"Ġclass":1147,"Ġhand":1148,".|||.|||":1149,"Ġcar":1150,"ill":1151,"Ġthought":1152,"ys":1153,"She":1154,"Ġplug":1155,"Ġver":1156,"Ġbase":1157,"rite":1158,"Ġrec":1159,"sent":1160,"ably":1161,"Ġac":1162,"Ġsm":1163,"bably":1164,"ous":1165,"lyn":1166,"und":1167,"Ġbeen":1168,"ove":1169,"ĠCh":1170,"ap":1171,"omial":1172,"Ġgroups":1173,"Ġbre":1174,"Ġexact":1175,"Ch":1176,"My":1177,"Ġwell":1178,"Ġmatch":1179,"ros":1180,"Ġboard":1181,"kit":1182,"Ġblue":1183,"ier":1184,"ten":1185,"undred":1186,"Ġ?|||":1187,"Ġstop":1188,"ood":1189,"ackson":1190,"Ġwait":1191,"enti":1192,"wn":1193,"Ġcalculator":1194,"Ġthird":1195,"Ġsc":1196,"osed":1197,"Ġcase":1198,"angent":1199,"Se":1200,"Ġhundred":1201,"Ġdot":1202,"Ġbox":1203,"ortant":1204,"Ġmaybe":1205,"Ġminute":1206,"self":1207,"Ġrepre":1208,"Ġimportant":1209,"Ġrepresent":1210,"orm":1211,"Ġestimate":1212,"Ġused":1213,"Ġparti":1214,"og":1215,"ĠG":1216,"Ġanybody":1217,"100":1218,"Ġfactoring":1219,"Ġtoolkit":1220,"nth":1221,"Ġdifference":1222,"Ġdes":1223,"arl":1224,"Think":1225,"Ġsorry":1226,"sh":1227,"Ġidea":1228,"20":1229,"Ġty":1230,"Ġclos":1231,"Ġdisc":1232,"ween":1233,"Five":1234,"ated":1235,"Ġ13":1236,"Ġday":1237,"Ġstarted":1238,"ark":1239,"pposed":1240,"Show":1241,"Ġtri":1242,"Ġbetween":1243,"intercepts":1244,"Ġspl":1245,"Ġnotice":1246,"bo":1247,"tty":1248,"wor":1249,"ath":1250,"Ġsupposed":1251,"alent":1252,"ivalent":1253,"Ġcall":1254,"ign":1255,"Ġready":1256,"Ġcommon":1257,"Ġheight":1258,"ings":1259,"Ġpiece":1260,"Ġequivalent":1261,"Ġyet":1262,"Ġwrong":1263,"Ġstudents":1264,"ool":1265,"ither":1266,"Ġop":1267,"Ġsplit":1268,"Ġcouple":1269,"ful":1270,"Ġadding":1271,"ock":1272,"ÏĢ":1273,"ĠH":1274,"ves":1275,"ont":1276,"usse":1277,"Ġsquares":1278,"izz":1279,"Ġher":1280,"Ġfourth":1281,"Ġconf":1282,"Ġpoints":1283,"Don":1284,"ĠE":1285,"ese":1286,"ides":1287,"Ġtaking":1288,"terday":1289,".\"|||":1290,"ĠT":1291,"Ġprocess":1292,"Ġcomple":1293,"Ġzeros":1294,"Ġbreak":1295,"Ġpat":1296,"idd":1297,"Ġsteps":1298,"Ġsmall":1299,"Ġrest":1300,"Ġorder":1301,"rd":1302,"tern":1303,"Ġlearning":1304,"Ġchange":1305,"30":1306,"Good":1307,"Ġperfect":1308,"ng":1309,"Ġgetting":1310,"ever":1311,"Ġprobably":1312,"Ġmade":1313,"Ġones":1314,"Ġinf":1315,"May":1316,"Ġ(":1317,"rection":1318,"ations":1319,"Ġthank":1320,"Ġconver":1321,"Ġdividing":1322,"Ġbuzz":1323,"Ġdeg":1324,"Ġsym":1325,"ored":1326,"Ġfriend":1327,"Ġgreater":1328,"Ġwords":1329,"ord":1330,"Ġtotal":1331,"Ġsides":1332,"Ġpretty":1333,"50":1334,"Ġ200":1335,"Everybody":1336,"Ġhome":1337,"Ġfif":1338,"arest":1339,"16":1340,"ri":1341,"ear":1342,"Ġfit":1343,"Ġ14":1344,"lynomial":1345,"Make":1346,"ince":1347,"erase":1348,"Ġ40":1349,"Ġguess":1350,"Ġhead":1351,"Ġcalled":1352,"Ġra":1353,"Ġmaking":1354,"Please":1355,"Ġdr":1356,"ity":1357,"Ġdirection":1358,"Ġpolynomial":1359,"Ġap":1360,"Ġsum":1361,"ance":1362,"iting":1363,"Ġeasy":1364,"use":1365,"side":1366,"ote":1367,"].|||":1368,"Ġown":1369,"Wait":1370,"Ġsign":1371,"Ġsharing":1372,"Ġsimpl":1373,"Ġtriangle":1374,"Ne":1375,"Ġhard":1376,"Ġnearest":1377,"Ġ60":1378,"iley":1379,"Ġbasically":1380,"lem":1381,"enc":1382,"Not":1383,"Ġbook":1384,"Ġclose":1385,"Ġpay":1386,"Ġ24":1387,"Maybe":1388,"Ġwent":1389,"Ġfinding":1390,"Ġpattern":1391,"Ġtalked":1392,"Ġbigger":1393,"Ġwrote":1394,"ring":1395,"Ġrew":1396,"epe":1397,"Ġpick":1398,"adies":1399,"Ġseat":1400,"Ġsomeone":1401,"Ġyesterday":1402,"able":1403,"Ġlesson":1404,"Ġeasier":1405,"Ġmultiple":1406,"Ġeither":1407,"Ġleng":1408,").|||":1409,"Ġexpon":1410,"Ġstrategies":1411,"Ġlisten":1412,"xis":1413,"Ġsine":1414,"Ġcos":1415,"Ġcost":1416,"reen":1417,"vel":1418,"Ġmeas":1419,"ud":1420,"Ġpair":1421,"ĠD":1422,"Ġdat":1423,"ence":1424,"Ġwhite":1425,"ties":1426,"sing":1427,"Ġind":1428,"15":1429,"ches":1430,"get":1431,"Ġlooks":1432,"Ġtenths":1433,"Ġheard":1434,"ĠP":1435,"entlem":1436,"ered":1437,"Ġdata":1438,"These":1439,"Ġtangent":1440,"tions":1441,"Ġasked":1442,"Ġfigured":1443,"ris":1444,"Ġsk":1445,"Ġ17":1446,"Ġlength":1447,"entlemen":1448,"Ġwhitebo":1449,"Ġidenti":1450,"work":1451,"Al":1452,"Six":1453,"ient":1454,"Ġworks":1455,"Ġtook":1456,"ile":1457,"Ġhis":1458,"anation":1459,"til":1460,"ket":1461,"Ġteach":1462,"Stand":1463,"ount":1464,"To":1465,"vi":1466,"Ġname":1467,"ute":1468,"Per":1469,"Ġtrue":1470,"oney":1471,"Ġsquared":1472,"Ġhomework":1473,"iles":1474,"ĠL":1475,"Ġhour":1476,"Ġcle":1477,"Ġinst":1478,"Ġleave":1479,"olate":1480,"Ġmatter":1481,"Ġbloc":1482,"ĠN":1483,"Ġbar":1484,"Ġ25":1485,"Ġexactly":1486,"Ġunderstanding":1487,"ith":1488,"ment":1489,"umbs":1490,"Ġspe":1491,"Ġpull":1492,"Ġinc":1493,"Ġspec":1494,"Ġterms":1495,"Ġblocks":1496,"Ġhaven":1497,"Ġexplanation":1498,"Read":1499,"Ġpack":1500,"Ġ11":1501,"Ġnew":1502,"Ġmultiplied":1503,"Ġgentlemen":1504,"ids":1505,"Ġstuff":1506,"Ġgiv":1507,"Ġmis":1508,"ogn":1509,"24":1510,"Ġhigh":1511,"Ġmark":1512,"Ġsomebody":1513,"Ġwanted":1514,"Ġways":1515,"Ġmodify":1516,"ormation":1517,"Ġcloser":1518,"ily":1519,"Ġwriting":1520,"Ġchang":1521,"Ġuntil":1522,"Ġfound":1523,"Ġmeasure":1524,"And":1525,"idth":1526,"Ġquiz":1527,"Ġgets":1528,"encil":1529,"book":1530,"row":1531,"Ġmoney":1532,"Ġrecogn":1533,"200":1534,"ah":1535,"Ġen":1536,"?|||.|||":1537,"Ġred":1538,"Ġadded":1539,"Ġhappens":1540,"Ġdiscus":1541,"Ġcomplete":1542,"Ġinformation":1543,"Ġconvers":1544,"Would":1545,"axis":1546,"Ġpare":1547,"arley":1548,"eter":1549,"Ġsha":1550,"Ġparts":1551,"ussell":1552,"Qu":1553,"Ġreas":1554,"Ġreason":1555,"Ġpencil":1556,"air":1557,"wh":1558,"Ġyear":1559,"ero":1560,"chool":1561,"Ġsheet":1562,"Ġyours":1563,"Ġfew":1564,"Ġsl":1565,"Ġlearned":1566,"Ġquickly":1567,"Ġrewrite":1568,"rand":1569,"epend":1570,"Ġneeds":1571,"Ġhear":1572,"ces":1573,"wise":1574,"Ġhim":1575,"igin":1576,"Those":1577,"ash":1578,"Ġ56":1579,"itten":1580,"izing":1581,"Ġdecimals":1582,"iddle":1583,"Ġshape":1584,"Ġerase":1585,".|||-":1586,"Ġfront":1587,"atch":1588,"ticular":1589,"Ġclap":1590,"ependent":1591,"Ġwithout":1592,"kat":1593,".|||[":1594,"Ġwalk":1595,"ery":1596,"erkat":1597,"Ġpur":1598,"Ġdoll":1599,"Ġinches":1600,"lves":1601,"Ġmiddle":1602,"Ġplot":1603,"Ġtrick":1604,"Ġhundredths":1605,"Ġclear":1606,"Ġfine":1607,"Ġeveryone":1608,"Ġparticular":1609,"Ġmost":1610,"Eight":1611,"ian":1612,"rees":1613,"Ġbring":1614,"Ġisn":1615,"Ġ19":1616,"Ġmeerkat":1617,"Ġatten":1618,"Ġorigin":1619,"Which":1620,"inder":1621,"Ġdollar":1622,"Ġattention":1623,"Nice":1624,"Ġcut":1625,"tian":1626,"Ġrepe":1627,"Ġproper":1628,"Ġthumbs":1629,"met":1630,"tra":1631,"Ġwidth":1632,"Ġopen":1633,"Ġnice":1634,"Ġloc":1635,"Ġsent":1636,"Notice":1637,"ĠMr":1638,"ples":1639,"Ġspecif":1640,"Or":1641,"res":1642,"Ġgreen":1643,"Ġitself":1644,"osh":1645,"ffic":1646,"Ġconn":1647,"Ġcolor":1648,"Ġsymmet":1649,"Ġdist":1650,"Ġcompare":1651,"Add":1652,"ating":1653,"Ġbot":1654,"Ġsolving":1655,"Ġcube":1656,"Ġbott":1657,"Be":1658,"Hey":1659,"ram":1660,"Ġfinished":1661,"Multi":1662,"cel":1663,"Soph":1664,"Ġformul":1665,"Ġsur":1666,"Ġextra":1667,"Ġcomes":1668,"Ġexamples":1669,"Ġseconds":1670,"See":1671,"Hold":1672,"Jackson":1673,"Part":1674,"ition":1675,"mor":1676,"ning":1677,"ues":1678,"Ġschool":1679,"Ġmon":1680,"ories":1681,"Ġstarting":1682,"Ġexplaining":1683,"Ġstrings":1684,"Ġproducts":1685,"oun":1686,"len":1687,"imeter":1688,"Ġtelling":1689,"ordin":1690,"Ġcosine":1691,"Ġlevel":1692,"Ġdisag":1693,"Ġbetter":1694,"randon":1695,"Ġ45":1696,"First":1697,"Ġhaving":1698,"Sophia":1699,"Ġwee":1700,"Ġpartial":1701,"Come":1702,"ainder":1703,"uzz":1704,"ĠÃ·":1705,"Ġar":1706,"Ġtold":1707,"Ġmist":1708,"Ġmiles":1709,"augh":1710,"Ġ22":1711,"Ġ36":1712,"Ġfactored":1713,"Ġcoordin":1714,"Ġremainder":1715,"fficient":1716,"But":1717,"full":1718,"not":1719,"Ġodd":1720,"Ġbeh":1721,"Ġcubic":1722,"ristian":1723,"fully":1724,"Ġexponent":1725,"rain":1726,"ĠJackson":1727,"used":1728,"Ġdrawing":1729,"Ġchance":1730,"irl":1731,"Ġwhiteboard":1732,"Ġformula":1733,"Ġlove":1734,"fin":1735,"uc":1736,"wards":1737,"Ġcame":1738,"ison":1739,"Ġbel":1740,"Ġ300":1741,"tical":1742,"times":1743,"Ġtype":1744,"Ġdirections":1745,"Ġgives":1746,"yes":1747,"âĪ":1748,"Ġice":1749,"Ġintercept":1750,"Ġwhile":1751,"Ġperimeter":1752,"Ġdisagree":1753,"Like":1754,"Ġob":1755,"Ġturning":1756,"xtbook":1757,"Ġpartition":1758,"Ġsentence":1759,"umber":1760,"Ġgiven":1761,"ised":1762,"Ġcircles":1763,"Great":1764,"Write":1765,"Ġtw":1766,"ates":1767,"ots":1768,"Ġkids":1769,"Ġwritten":1770,"Ġsaw":1771,"Ġsolu":1772,"tex":1773,"Ġbuy":1774,"Ġvertex":1775,"Ġdegree":1776,"where":1777,"by":1778,"ope":1779,"icro":1780,"Ġcubes":1781,"abelle":1782,"icroph":1783,"Pl":1784,"iet":1785,"ational":1786,"With":1787,"ĠW":1788,"Ġshowing":1789,"ib":1790,"11":1791,"28":1792,"?\"|||":1793,"Very":1794,"bor":1795,"mar":1796,"Ġgl":1797,"Ġgave":1798,"igit":1799,"aces":1800,"Ġres":1801,"arter":1802,"Ġleast":1803,"Ġconst":1804,"ocab":1805,"Ġsitu":1806,"Ġtyp":1807,"Ġdrive":1808,"Ġsimplify":1809,"Ġpurple":1810,"ta":1811,"ĠÏĢ":1812,"Ġlead":1813,"nthes":1814,"Ġraise":1815,"Ġparenthes":1816,"Ġinter":1817,"Ġboxes":1818,"angles":1819,"Ġconfused":1820,"Ladies":1821,"Ġroom":1822,"Ġgirl":1823,"Ġwouldn":1824,"Put":1825,"Ġshouldn":1826,"Ġboys":1827,"Ġspecific":1828,"Buzz":1829,"ĠYou":1830,"Ġold":1831,"Ġhold":1832,"ans":1833,"Ġhands":1834,"ighbor":1835,"otte":1836,"Ġneighbor":1837,"Ġcoming":1838,"Ġexpand":1839,"Ġsets":1840,"ulary":1841,"arlotte":1842,"Ġenough":1843,"ocabulary":1844,"27":1845,"Turn":1846,"up":1847,"Ġgame":1848,"ange":1849,"Ġshort":1850,"Ġcomb":1851,"Ġpartners":1852,"Ġsuc":1853,"Ġmess":1854,"As":1855,"iew":1856,"Ġindependent":1857,"Ġsn":1858,"ustin":1859,"Could":1860,"Get":1861,"Have":1862,"ray":1863,"Ġsince":1864,"Ġdro":1865,"Ġfar":1866,"Ġcare":1867,"ĠIs":1868,"rase":1869,"Thanks":1870,"Ġfeet":1871,"Ġthirds":1872,"ockwise":1873,"Ġinstead":1874,"Ġconversation":1875,"Ġmistake":1876,"ĠWhat":1877,"rew":1878,"Ġsw":1879,"Ġonce":1880,"Ġhalves":1881,"Ġstra":1882,"Ġcannot":1883,"Ġexplor":1884,"Ġtak":1885,"ross":1886,"ĠHarley":1887,"Ġstraight":1888,"ines":1889,"Ġ27":1890,"Ġbottom":1891,"Te":1892,"Ġdesk":1893,"Number":1894,"cent":1895,"Ġfo":1896,"Ġeverything":1897,"25":1898,"Ġref":1899,"Ġtextbook":1900,"fy":1901,"Ġph":1902,"Ġstay":1903,"Ġamount":1904,"Give":1905,"ual":1906,"Ġsurf":1907,"Ġdry":1908,"Ġworked":1909,"Ġvocabulary":1910,"Ġconcept":1911,"Ġangles":1912,"ounces":1913,"ailey":1914,"hn":1915,"ost":1916,"Ġapp":1917,"Ġtheta":1918,"itch":1919,"Ġsmaller":1920,"Ġfifth":1921,"icrophone":1922,"Ġsuccess":1923,"Ġquiet":1924,",\"":1925,"Ġcont":1926,"Ġflip":1927,"ule":1928,"ater":1929,"Ġlistening":1930,"iday":1931,"Sorry":1932,"gin":1933,"Ġgrid":1934,"18":1935,"to":1936,"ĠF":1937,"Ġcre":1938,"Ġju":1939,"rod":1940,"Ġwants":1941,"Ġneeded":1942,"Ġnotic":1943,"Ġcount":1944,"Ġgrade":1945,"Ġcarr":1946,"Ġexpanded":1947,"Gu":1948,"Ġopp":1949,"Ġeigh":1950,"osite":1951,"Ġchair":1952,"ĠJack":1953,"Ġapply":1954,"Ġass":1955,"Ġskill":1956,"iam":1957,"uring":1958,"Ġanyone":1959,"Ġreview":1960,",|||":1961,"40":1962,"Ġfree":1963,"Ġfold":1964,"ory":1965,"ames":1966,"gest":1967,"Ġbegin":1968,"Ġrid":1969,"Expl":1970,"Multiply":1971,"Jack":1972,"Try":1973,"Ġmissing":1974,"Ġrecognize":1975,"19":1976,"36":1977,"ex":1978,"reas":1979,"erest":1980,"Ġprove":1981,"000":1982,"Ġtells":1983,"Ġlooked":1984,"Ġexpres":1985,"Ġstudent":1986,"Ġtotally":1987,"Ġdegrees":1988,"Ġhours":1989,"Ġcarrots":1990,"nabelle":1991,"ĠâĪ":1992,"Ġstic":1993,"Ġcards":1994,"Negative":1995,"Guys":1996,"Ġwhatever":1997,"Ġ90":1998,"Ġmessage":1999,"Ġbrain":2000,"ne":2001,"wes":2002,"Ġrule":2003,"Ġoutside":2004,"Ġpercent":2005,"Frie":2006,"wesome":2007,"cros":2008,"ĠFr":2009,"Ġlabel":2010,"stalk":2011,"crosstalk":2012,"Ġwatch":2013,"arget":2014,"Page":2015,"Round":2016,"Tell":2017,"ges":2018,"Î¸":2019,"ĠÎ¸":2020,"Ġyell":2021,"Ġlight":2022,"omp":2023,"Ġinside":2024,"aud":2025,"ella":2026,"Ġtrack":2027,"Ġ600":2028,"Ġvar":2029,"Ġ120":2030,"Ġlinear":2031,"Ġvalues":2032,"Ġdefin":2033,"Anybody":2034,"Partner":2035,"Ġcoordinate":2036,"Ġparentheses":2037,"Ġjuice":2038,"14":2039,"Ġad":2040,"Ġhappening":2041,"Ġacti":2042,"Ġswitch":2043,"Ġopposite":2044,"itting":2045,"Ġequations":2046,"Friends":2047,"av":2048,"Ġvis":2049,"ables":2050,"22":2051,"Ġgirls":2052,"come":2053,"Ġfull":2054,"Ġrepresents":2055,"Ġsurface":2056,"aph":2057,"efficient":2058,"right":2059,"inaud":2060,"Ġsir":2061,"Ġdou":2062,"Ġbad":2063,"Ġmind":2064,"Ġrational":2065,"ample":2066,"Ġquite":2067,"Ġshoulder":2068,"Ġinterest":2069,"Ġshows":2070,"Ġmathem":2071,"Ġcop":2072,"iving":2073,"Ġexpect":2074,"Ġrounded":2075,"Ġsubtracting":2076,"Ġcars":2077,"Ġsummar":2078,"Ready":2079,"Ġmodifying":2080,"Ġchanged":2081,"Ġsymmetry":2082,"Ġnoticed":2083,"inaudible":2084,"ior":2085,"Ġfourths":2086,"unior":2087,"ousand":2088,"Ġrepeat":2089,"Re":2090,"rit":2091,"yram":2092,"Ġ,":2093,"Ġpost":2094,"ume":2095,"Ġordered":2096,"llow":2097,"oday":2098,"oice":2099,"Ġwaiting":2100,"Ġdesks":2101,"Ġactual":2102,"Russell":2103,"Talk":2104,"bol":2105,"ric":2106,"val":2107,"Ġ*":2108,"ĠOh":2109,"ert":2110,"Ġbro":2111,"Ġpizz":2112,"Ġabove":2113,"Ġwilling":2114,"Ġ70":2115,"Ġparaph":2116,"Ġspot":2117,"Stop":2118,"Ġstandard":2119,"Ġclosest":2120,"Ġfifths":2121,"Ġidentity":2122,"Ġpackage":2123,"Ġconstant":2124,"rayson":2125,"Ġeighths":2126,"Ġdrew":2127,"ective":2128,"Ġdenominators":2129,"Ġjoin":2130,"shley":2131,"ousandths":2132,"ounds":2133,"Ġlines":2134,"Ġ80":2135,"Ġmoving":2136,"Seven":2137,"Brandon":2138,"Ġrectangles":2139,"Today":2140,"lcome":2141,"Ġfollow":2142,"rab":2143,"Ġvol":2144,"Ġbooks":2145,"ĠFriday":2146,"nes":2147,"Ġmine":2148,"Ġpass":2149,"ednes":2150,"Explain":2151,"ednesday":2152,"ond":2153,"Am":2154,"dge":2155,"etic":2156,"iol":2157,"ts":2158,"Â³":2159,"Ġsing":2160,"Ġtomor":2161,"Ġdigit":2162,"omes":2163,"Ġyourself":2164,"Ġcancel":2165,"Ġchec":2166,"Ġcouldn":2167,"ieve":2168,"ctually":2169,"Ġcoefficient":2170,"Ġspent":2171,"Ġposs":2172,"Ġkey":2173,"Ġsimply":2174,"Ġrounding":2175,"Anyone":2176,"Ġsynth":2177,"Ġsymbol":2178,"Ġmeerkats":2179,"Ġmonths":2180,"Ġbelieve":2181,"Ġsituation":2182,"Ġyellow":2183,"Ġdouble":2184,"Ġinteresting":2185,"Ġtomorrow":2186,"Ġsynthetic":2187,"Since":2188,"aking":2189,"ret":2190,"Ġmom":2191,"Ġface":2192,"Ġeyes":2193,"Ġstore":2194,"Should":2195,"Ġspace":2196,"Ġsize":2197,"Ġpyram":2198,"ism":2199,"Ġladies":2200,"ston":2201,"Ġforget":2202,"Ġprism":2203,"ages":2204,"Ġacc":2205,"apt":2206,"Ġsitting":2207,"iriam":2208,"Once":2209,"Ġcomput":2210,"Ġstory":2211,"17":2212,"Our":2213,"ister":2214,"Everyone":2215,"60":2216,"Bo":2217,"Wow":2218,"Way":2219,"Zero":2220,"Ġ--|||":2221,"Ġgen":2222,"Ġbest":2223,"Ġmar":2224,"ising":2225,"sed":2226,"than":2227,"ension":2228,"Ġlar":2229,"Ġrot":2230,"ection":2231,"ulian":2232,"imension":2233,"Ġseen":2234,"Ġbecomes":2235,"Ġquarter":2236,"Ġallow":2237,"Ġaddition":2238,"Ġclip":2239,"Ġviol":2240,"Ġnothing":2241,"Ġprom":2242,"Ġparking":2243,"Ġhelps":2244,"ĠJosh":2245,"Ġcalories":2246,"ilar":2247,"Ġsimple":2248,"Ġpractic":2249,"Ġplayer":2250,"Ġrevise":2251,"Christian":2252,"Ġspend":2253,"Ġdiscuss":2254,"Ġproperty":2255,"Ġexpression":2256,"Ġviolin":2257,"13":2258,"Pro":2259,"ale":2260,"oe":2261,"Ġthousandths":2262,"ĠRussell":2263,"ude":2264,"Ġobj":2265,"Ġexploration":2266,"Ġsuccessful":2267,"Ġchoo":2268,"Person":2269,"Ġmarker":2270,"Tim":2271,"Ġcapt":2272,"ane":2273,"arlie":2274,"Perfect":2275,"Ġcover":2276,"Ġgrad":2277,"Take":2278,"Ġweek":2279,"At":2280,"Ke":2281,"Ten":2282,"Table":2283,"pon":2284,"pet":2285,"ru":2286,"ĠV":2287,"Ġwal":2288,"Ġbizz":2289,"Ġfoc":2290,"Ġpie":2291,"lla":2292,"umn":2293,"ooper":2294,"Ġate":2295,"Ġsomewhere":2296,"Ġwasn":2297,"indow":2298,"Ġtrans":2299,"Ġchoc":2300,"Ġputting":2301,"Ġsimilar":2302,"Ġcarpet":2303,"ously":2304,"rib":2305,"Question":2306,"Ġconnection":2307,"Ġintercepts":2308,"Ġcreate":2309,"rody":2310,"Ġstick":2311,"imensional":2312,"Ġchocolate":2313,"ai":2314,"iod":2315,"Ġwelcome":2316,"acket":2317,"ĠAn":2318,"Ġcolored":2319,"Ġtricky":2320,"Ġbeginning":2321,"ump":2322,"ĠBr":2323,"Fraction":2324,"Ġpyramid":2325,"oor":2326,"oof":2327,"Ġpairs":2328,"Ġexplained":2329,"Ġvisual":2330,"Ġnever":2331,"Ġfinal":2332,"cut":2333,"Ġtarget":2334,"ones":2335,"iss":2336,"Ġshortcut":2337,"01":2338,"46":2339,"Each":2340,"Of":2341,"ael":2342,"ci":2343,"ck":2344,"light":2345,"lockwise":2346,"ob":2347,"Ġsort":2348,"Ġcour":2349,"ĠIan":2350,"Ġhall":2351,"Ġeat":2352,"alle":2353,"Ġreg":2354,"Ġjus":2355,"Ġshad":2356,"Ġtried":2357,"ichael":2358,"ified":2359,"Isolate":2360,"Ġ75":2361,"Ġprice":2362,"Ġ180":2363,"Start":2364,"Ġmodels":2365,"Somebody":2366,"Sometimes":2367,"Ġappl":2368,"Ġdiscussion":2369,"Ġlocation":2370,"Ġsolution":2371,"reasing":2372,"Ġcopy":2373,"Me":2374,"Nine":2375,"Use":2376,"you":2377,"Ġent":2378,"Ġhope":2379,"Ġcam":2380,"ention":2381,"ddy":2382,"Ġboards":2383,"Ġperiod":2384,"Ġcombin":2385,"AM":2386,"Ġtall":2387,"imum":2388,"Ġseeing":2389,"Ġpackages":2390,"AMP":2391,"Ġgrab":2392,"Ġproof":2393,"From":2394,"Ġfloor":2395,"Hi":2396,"io":2397,"Ġcard":2398,"Ġwhe":2399,"Ġrevised":2400,"ary":2401,"oud":2402,"45":2403,"Ġturns":2404,"),":2405,"80":2406,"Actually":2407,"Find":2408,"Microphone":2409,"Pos":2410,"fit":2411,"less":2412,"ĠZ":2413,"Ġsister":2414,"Ġyards":2415,"Ġtowards":2416,"sen":2417,"arston":2418,"room":2419,"Ġnote":2420,"Ġclock":2421,"Ġbackwards":2422,"Ġgrouping":2423,"Ġgraphing":2424,"Ġtens":2425,"Ġtenth":2426,"Ġmax":2427,"Ġlonger":2428,"Ġvertical":2429,"Ġoption":2430,"Next":2431,"Ġincl":2432,"Ġoriginal":2433,"Ġconnect":2434,"Ġtwice":2435,"Ġglass":2436,"value":2437,"Ġparaphrase":2438,"]|||":2439,"]?|||":2440,"rant":2441,"Ġoh":2442,"Ġworld":2443,"Ġradicals":2444,"Ġestimation":2445,"Ġquadrant":2446,"Ġcosts":2447,"Ġtaken":2448,"Ġobjective":2449,"Ġfam":2450,"acher":2451,"Ġturned":2452,"Ġpictures":2453,"Austin":2454,"Ġcaptain":2455,"sti":2456,"ĠSophia":2457,"Ġbeep":2458,"ĠWednesday":2459,"stit":2460,"Ġmid":2461,"?|||-":2462,"Ġnames":2463,"pped":2464,"stead":2465,"ribe":2466,"ĠMrs":2467,"Ġsnack":2468,"\".|||":2469,"26":2470,"Even":2471,"Same":2472,"Sub":2473,"Square":2474,"avi":2475,"how":2476,"ny":2477,"oic":2478,"ually":2479,"wen":2480,"ĠO":2481,"Ġounces":2482,"Ġtra":2483,"atical":2484,"Ġdaugh":2485,"Ġbag":2486,"Ġfur":2487,"Ġcents":2488,"Ġrange":2489,"icah":2490,"Ġstar":2491,"Ġ28":2492,"Ġ32":2493,"Ġsometimes":2494,"actor":2495,"Ġ410":2496,"Ġclue":2497,"Ġsection":2498,"ĠJulian":2499,"Ġdecomp":2500,"teen":2501,"Ġcorrectly":2502,"Ġcolumn":2503,"Ġacross":2504,"ĠCharlotte":2505,"Ġhighlight":2506,"Ġbehavi":2507,"Ġdrove":2508,"Ġvari":2509,"Ġmathematical":2510,"Ġpizza":2511,"Ġprompt":2512,"Ġfocus":2513,"oices":2514,"Ġdaughter":2515,"Ġfurther":2516,"Ġbehavior":2517,"just":2518,"thod":2519,"qual":2520,"Ġrel":2521,"Ġmethod":2522,"Ġintention":2523,"Ġ99":2524,"ussel":2525,"Ġteacher":2526,"Ġleader":2527,"Ġlate":2528,"Ġminimum":2529,"Ġlocal":2530,"Plus":2531,"Ġquietly":2532,"56":2533,"Ġhit":2534,"ĠMiriam":2535,"Ġraised":2536,"ĠGod":2537,"Ġwhether":2538,"stitute":2539,"Ġbread":2540,"Ġhappened":2541,"avor":2542,"Ag":2543,"Ġfing":2544,"ĠIt":2545,"Ġloud":2546,"Ġ400":2547,"Instead":2548,"Ġseats":2549,"Ġmor":2550,"Ab":2551,"By":2552,"Base":2553,"Josh":2554,"Mr":2555,"Mia":2556,"Ra":2557,"Say":2558,"back":2559,"li":2560,"oes":2561,"sol":2562,"yl":2563,"ynth":2564,"ĠYes":2565,"ĠWe":2566,"ĠNo":2567,"ĠThis":2568,"Ġtie":2569,"ouse":2570,"Ġawesome":2571,"Ġwon":2572,"Ġyarn":2573,"Ġhouse":2574,"Ġfaces":2575,"Ġcent":2576,"Ġcook":2577,"Ġcass":2578,"ĠIf":2579,"Ġits":2580,"Ġdoor":2581,"ited":2582,"otangent":2583,"icand":2584,"Ġmemor":2585,"roc":2586,"Ġprofit":2587,"Ġworry":2588,"ush":2589,"Ġ450":2590,"unch":2591,"abe":2592,"abella":2593,"ixed":2594,"ife":2595,"Ġletter":2596,"Ġparag":2597,"Ġformat":2598,"Ġroots":2599,"Ġdecide":2600,"tend":2601,"Ġevenly":2602,"ops":2603,"Ġended":2604,"Ġplaying":2605,"Charlotte":2606,"idden":2607,"Ġindex":2608,"Ġskip":2609,"viously":2610,"Ġrecognizing":2611,"erole":2612,"Ġarg":2613,"Ġtwel":2614,"Ġsolutions":2615,"Ġtypes":2616,"Ġskills":2617,"Ġsummarize":2618,"ertain":2619,"Ġgener":2620,"Probably":2621,"Keep":2622,"Questions":2623,"Ġcourse":2624,"Positive":2625,"Raise":2626,"ynthia":2627,"Ġcasserole":2628,"Ġparagraph":2629,"Ian":2630,"Kay":2631,"Sure":2632,"my":2633,"oti":2634,"era":2635,"ided":2636,"echn":2637,"ared":2638,"Ġclub":2639,"abby":2640,"Ġteams":2641,"Ġcolle":2642,"ĠChristian":2643,"Ġpatterns":2644,"Ġproperties":2645,"Ġbehind":2646,"ĠAnnabelle":2647,"Ġcamera":2648,"Co":2649,"Ġdet":2650,"Ġdue":2651,"Ġcomputer":2652,"Hell":2653,"of":2654,"Hello":2655,"Ġpit":2656,"Ġreading":2657,"Ġremind":2658,"Ġspeed":2659,"Ġpita":2660,"the":2661,"Ġchart":2662,"cellent":2663,"?|||(":2664,"--?|||":2665,"Ġpapers":2666,"line":2667,"Ġfast":2668,"itely":2669,"ugg":2670,"Ġinfin":2671,"Alright":2672,"Ġmorning":2673,"08":2674,"34":2675,"300":2676,"Div":2677,"Harley":2678,"Riley":2679,"ild":2680,"lor":2681,"ohn":2682,".|||.":2683,"Ġgone":2684,"Ġbow":2685,"Ġburn":2686,"Ġpink":2687,"Ġcur":2688,"Ġdom":2689,"Ġedge":2690,"ident":2691,"alf":2692,"allen":2693,"Ġrul":2694,"Ġaren":2695,"ases":2696,"Ġstories":2697,"Ġnotes":2698,"Ġfru":2699,"Ġpaid":2700,"ĠCooper":2701,"ĠBrandon":2702,"Ġradicand":2703,"Ġjournals":2704,"Ġunits":2705,"Ġideas":2706,"Ġdots":2707,"world":2708,"Ġcomplex":2709,"Ġdriving":2710,"Ġpolynomials":2711,"Ġwhiteboards":2712,"Ġconversations":2713,"uck":2714,"Ġindependently":2715,"Ġcareful":2716,"Ġrotation":2717,"Ġpracticing":2718,"Ġhallway":2719,"Ġvariables":2720,"Again":2721,"solute":2722,"After":2723,"most":2724,"yle":2725,"ounce":2726,"arret":2727,"Ġever":2728,"Ġquoti":2729,"ĠAshley":2730,"Ġ64":2731,"Ġfeeling":2732,"board":2733,"ĠTh":2734,"Ġfill":2735,"Ġtwos":2736,"Ġdiag":2737,"Ġseem":2738,"Ġmultiples":2739,"Ġ54":2740,"ĠMath":2741,"Teacher":2742,"Ġchoose":2743,"Ġexponents":2744,"Times":2745,"Ġstanding":2746,"Ġcalculators":2747,"|||,":2748,"Ġfavor":2749,"Ġgotten":2750,"isten":2751,"vities":2752,"Ġactivities":2753,"Ġidentify":2754,"ling":2755,"Ġplan":2756,"ately":2757,"06":2758,"07":2759,"09":2760,"Con":2761,"Ethan":2762,"Fl":2763,"Factor":2764,"Got":2765,"Last":2766,"Ms":2767,"Min":2768,"Michael":2769,"Up":2770,"ail":2771,"cant":2772,"dges":2773,"got":2774,"lin":2775,"mily":2776,"na":2777,"ps":2778,"rical":2779,"what":2780,"ya":2781,"Ġ?":2782,"Ġenti":2783,"inc":2784,"rey":2785,"Ġtheore":2786,"Ġhor":2787,"Ġhidden":2788,"Ġbr":2789,"Ġbounces":2790,"Ġmixed":2791,"Ġcose":2792,"Ġcases":2793,"Ġonto":2794,"tial":2795,"tify":2796,"Ġem":2797,"Ġbell":2798,"Thumb":2799,"Ġinv":2800,"Ġrand":2801,"Ġshade":2802,"ument":2803,"ooking":2804,"Ġabsolute":2805,"Ġ34":2806,"Ġ42":2807,"ĠXs":2808,"olog":2809,"olated":2810,"ellen":2811,"Ġ102":2812,"Isabel":2813,"Ġfiguring":2814,"ctions":2815,"Ġcircled":2816,"Ġ150":2817,"atically":2818,"Ġdeal":2819,"ĠRe":2820,"Ġbasic":2821,"Excellent":2822,"Ġplugg":2823,"ĠGrayson":2824,"ĠElla":2825,"ĠPAMP":2826,"Ġinstru":2827,"Ġincreasing":2828,"asha":2829,"Ġclearly":2830,"Ġdollars":2831,"Ġrepeated":2832,"Ġsymmetrical":2833,"Ġdistrib":2834,"Ġbelow":2835,"Ġbuying":2836,"Ġleading":2837,"Ġinterpre":2838,"Ġcombine":2839,"Ġcarefully":2840,"Ġtakes":2841,"Ġdefinitely":2842,"Ġsingle":2843,"Ġdigits":2844,"Ġdecompose":2845,"Ġcookies":2846,"Ġdomain":2847,"Ġfruit":2848,"Ġentire":2849,"Ġtheorem":2850,"Ġcosecant":2851,"Ġrandom":2852,"oot":2853,"sus":2854,"wich":2855,"Ġsand":2856,"ĠJunior":2857,"ĠRiley":2858,"Ġmeasurement":2859,"Ġsandwich":2860,"Ha":2861,"Ġfix":2862,"Ġsoon":2863,"ental":2864,"Ġ48":2865,"ili":2866,"Ġdeterm":2867,"05":2868,"Ġtax":2869,"Ġrecord":2870,"ĠCharlie":2871,"Ġvolume":2872,"vity":2873,"Ġhelpful":2874,"Ġsubstitute":2875,"Ġbased":2876,"ney":2877,"Ġactivity":2878,"down":2879,"Ġ|||":2880,"Ġwra":2881,"Ġdark":2882,"ized":2883,"tenths":2884,"fer":2885,"ÃĹ":2886,"ĠCol":2887,"Ġfingers":2888,"Ġstrugg":2889,"Ġcontin":2890,"23":2891,"52":2892,"90":2893,"Br":2894,"Bizz":2895,"Bless":2896,"Kind":2897,"Ob":2898,"Over":2899,"Other":2900,"Wor":2901,"den":2902,"form":2903,"ience":2904,"lers":2905,"sday":2906,"ton":2907,"that":2908,"ted":2909,"ĠDo":2910,"ĠLet":2911,"Ġtumb":2912,"Ġtaugh":2913,"Ġthrees":2914,"inomial":2915,"resh":2916,"Ġwindow":2917,"Ġsuch":2918,"Ġsample":2919,"Ġoper":2920,"Ġbul":2921,"Ġbill":2922,"Ġcertain":2923,"veled":2924,"ortion":2925,"third":2926,"Ġisolated":2927,"tie":2928,"Ġlost":2929,"ida":2930,"acing":2931,"stem":2932,"alley":2933,"Ġshap":2934,"Ġmeet":2935,"actly":2936,"ursday":2937,"Ġchallen":2938,"Ġclockwise":2939,"Ġalong":2940,"Ġstarts":2941,"Ġvoices":2942,"pping":2943,"izont":2944,"Ġshowed":2945,"Ġdifferently":2946,"Ġgraphs":2947,"Ġparalle":2948,"ĠJust":2949,"Annabelle":2950,"Ġmodified":2951,"Ġlots":2952,"aitlyn":2953,"Ġestimated":2954,"Ġsubtraction":2955,"Ġtopic":2956,"Ġsystem":2957,"Ġflat":2958,"Example":2959,"Exactly":2960,"Ġmatches":2961,"Ġhundredth":2962,"1000":2963,"Ġ135":2964,"Ġconfident":2965,"ĠTasha":2966,"Ġrestric":2967,"Ġ(-":2968,"epends":2969,"Ġidentities":2970,"Ġparent":2971,"Ġrespon":2972,"ĠFlor":2973,"Multiplying":2974,"ĠâĪļ":2975,"Ġchecking":2976,"Ġpossib":2977,"Ġmoment":2978,"Ġlargest":2979,"Ġshaded":2980,"Subtr":2981,"Ġcenter":2982,"Ġinfinity":2983,"Divide":2984,"Ġrules":2985,"Ġtumblers":2986,"Ġtaught":2987,"Ġshapes":2988,"Ġchallenge":2989,"izontal":2990,"Ġparallel":2991,"ĠFlorida":2992,"Russel":2993,"Will":2994,"night":2995,"ĠThe":2996,"Ġmicrophone":2997,"Ġgoal":2998,"arily":2999,"Ġexit":3000,"Ġestimating":3001,"Ġprep":3002,"Ġbreaking":3003,"Ġconfus":3004,"echnically":3005,"%,":3006,"02":3007,"Le":3008,"unt":3009,"ward":3010,"Ġmental":3011,"iden":3012,"Ġjump":3013,"ask":3014,"Ġ21":3015,"Ġanswering":3016,"athan":3017,"ĠĠ":3018,".|||(":3019,"Awesome":3020,"cribe":3021,"Ġbor":3022,"Ġpen":3023,"Ġchoice":3024,"Ġdays":3025,"Ġmarkers":3026,".|||?|||":3027,"Ġfair":3028,"Ġknowing":3029,"Ġgiving":3030,"04":3031,"31":3032,"48":3033,"Bas":3034,"De":3035,"Draw":3036,"Es":3037,"Grayson":3038,"Garret":3039,"Kellen":3040,"Looking":3041,"Makes":3042,"Miles":3043,"Micah":3044,"Pick":3045,"Un":3046,"clockwise":3047,"digit":3048,"dimensional":3049,"fr":3050,"for":3051,"four":3052,"fort":3053,"ire":3054,"ius":3055,"ired":3056,"jac":3057,"loe":3058,"med":3059,"more":3060,"oint":3061,"put":3062,"ins":3063,"Ġsib":3064,"Ġdepends":3065,"Ġbunch":3066,"Ġpush":3067,"Ġcross":3068,"Ġcotangent":3069,"anc":3070,"Ġnight":3071,"llip":3072,"selves":3073,"ayden":3074,"Ġlabe":3075,"Ġlife":3076,"aria":3077,"Ġweigh":3078,"Ġwedges":3079,"Ġefficient":3080,"ider":3081,"acob":3082,"step":3083,"Ġrow":3084,"Whatever":3085,"verse":3086,"Ġstraw":3087,"Ġforgot":3088,"aden":3089,"ecc":3090,"Ġsep":3091,"urph":3092,"Ġ55":3093,"Ġ57":3094,"Ġpages":3095,"ield":3096,"Ġsage":3097,"Ġanymore":3098,"ĠAb":3099,"Ġalmost":3100,"Ġothers":3101,"Ġvide":3102,"abol":3103,"Only":3104,"Ġ85":3105,"ĠBrody":3106,"Ġsixth":3107,"Ġparabol":3108,"ives":3109,"Another":3110,"Ġblank":3111,"ips":3112,"ĠKailey":3113,"ĠKai":3114,"Ġgrow":3115,"Ġmap":3116,"Ġcomparing":3117,"Ġimpro":3118,"Ġrevising":3119,"ormally":3120,"Ġdiscount":3121,"Ġsmallest":3122,"Ġharder":3123,"Ġpaying":3124,"Ġrewr":3125,"ĠNick":3126,"Ġchanges":3127,"Ġreasonable":3128,"Ġyears":3129,"Ġsheets":3130,"Ġdistr":3131,"Before":3132,"Ġmonth":3133,"Ġ367":3134,"Ġcoordinates":3135,"Plug":3136,"Ġsituations":3137,"Ġtypical":3138,"Ġphone":3139,"Ġbrother":3140,"Ġpossible":3141,"Both":3142,"Boys":3143,"Ġmarks":3144,"Ġgraders":3145,"ĠValley":3146,"Ġwalking":3147,"Ġtransl":3148,"ĠBran":3149,"Ġjustify":3150,"Ġargument":3151,"Ġtwelve":3152,"Ġcollection":3153,"Ġburned":3154,"ĠThursday":3155,"Ġinvol":3156,"Ġinstructions":3157,"Work":3158,"jacent":3159,"lliptical":3160,"Ġlabeled":3161,"urphy":3162,"Ġbounce":3163,"erence":3164,"ict":3165,"ady":3166,"aurant":3167,"Ġdecided":3168,"Ġbases":3169,"Ġcalling":3170,"Ġrestaurant":3171,"Ġchanging":3172,"Ġadjust":3173,"Ġaccur":3174,"Ġhopefully":3175,"Ġtask":3176,"Ġbur":3177,"Ġcool":3178,"Ġseated":3179,"Ġanswered":3180,"Ġversion":3181,"iter":3182,"ĠKay":3183,"54":3184,"Ġhur":3185,"Ġlater":3186,"Ġdriveways":3187,"Listen":3188,"Ġtables":3189,"Miss":3190,"Pre":3191,"Ġpencils":3192,"Ġ72":3193,"Ġfavorite":3194,"\",":3195,"116":3196,"21":3197,"29":3198,"Ashley":3199,"Bring":3200,"Brody":3201,"Correct":3202,"Carston":3203,"John":3204,"Oops":3205,"Str":3206,"awn":3207,"ball":3208,"because":3209,"ee":3210,"iest":3211,"liv":3212,"mer":3213,"no":3214,"ption":3215,"pec":3216,"ron":3217,"uros":3218,"va":3219,"ze":3220,"Ġtit":3221,"Ġaut":3222,"reci":3223,"Ġwater":3224,"Ġdependent":3225,"Ġdimensional":3226,"Ġmach":3227,"essed":3228,"Ġfore":3229,"Ġcor":3230,"Ġcrit":3231,"vent":3232,"orter":3233,"Ġisolate":3234,"Ġlow":3235,"Ġlive":3236,"ara":3237,"arch":3238,"Ġends":3239,"Ġearl":3240,"Ġelliptical":3241,"omatically":3242,"Ġund":3243,"Ġreverse":3244,"veral":3245,"play":3246,"Yesterday":3247,"auti":3248,"Ġseveral":3249,"Ġexc":3250,"Ġ38":3251,"Ġmyself":3252,"Ġplaces":3253,"Sol":3254,"Ġ52":3255,"Ġchose":3256,"ems":3257,"Ġsave":3258,"Ġperform":3259,"Ġconj":3260,"nderson":3261,"Shawn":3262,"agle":3263,"oping":3264,"Ġsolved":3265,"Ġbuddy":3266,"Ġfunctions":3267,"Ġprefer":3268,"Everything":3269,"Ġquadratics":3270,"Ġfli":3271,"Check":3272,"Ġfits":3273,"Ġ170":3274,"Alison":3275,"Ġincorrect":3276,"Nicely":3277,"Ġcolors":3278,"Addison":3279,"Ġsimplifying":3280,"Ġsnow":3281,"Ġappreci":3282,"Ġassume":3283,"Ġpercentage":3284,"Ġrationalizing":3285,"Reese":3286,"Ġfollowing":3287,"Ġlarger":3288,"Ġallowance":3289,"Ġregular":3290,"Ġproofs":3291,"Ġinclud":3292,"Ġfamily":3293,"Ġtraveled":3294,"Ġdaughters":3295,"ylan":3296,"Ġmemory":3297,"Flash":3298,"Ġhorizontal":3299,"Ġbracket":3300,"Subtract":3301,"Basically":3302,"Garrett":3303,"ecca":3304,"Ġsepar":3305,"Ġvideo":3306,"livia":3307,"Ġautomatically":3308,"Ġearlier":3309,"35":3310,"39":3311,"400":3312,"ilent":3313,"ĠSo":3314,"Ġaver":3315,"Ġmus":3316,"lex":3317,"Ġnecess":3318,"ĠCo":3319,"ĠSu":3320,"Ġ136":3321,"Ġdistance":3322,"Team":3323,"Ġposter":3324,"Ġcombination":3325,"Ġsandwiches":3326,"Ġprepared":3327,"Ġconfusing":3328,"Ġnecessarily":3329,"rist":3330,"ss":3331,"Ġsounds":3332,"arify":3333,"Ġworth":3334,"Ġclarify":3335,"Ġsmart":3336,"Ġscreen":3337,"Quick":3338,"Ġvolunt":3339,"Cole":3340,"Ġrecording":3341,"Ġvolunte":3342,".\"":3343,"lee":3344,"Ġliter":3345,"Ġmatching":3346,"Ġliterally":3347,"Ġ167":3348,"Ġrefer":3349,"32":3350,"cket":3351,"arm":3352,"bert":3353,"Ġtoolkits":3354,"].":3355,"Ġret":3356,"Ġbiggest":3357,"Also":3358,"Ġcontinue":3359,"%.|||":3360,"37":3361,"49":3362,"AT":3363,"Ad":3364,"Clockwise":3365,"Cynthia":3366,"Di":3367,"Eyes":3368,"Equal":3369,"Hope":3370,"Ice":3371,"Jacob":3372,"Math":3373,"Owen":3374,"Tw":3375,"Window":3376,"bered":3377,"con":3378,"div":3379,"end":3380,"five":3381,"gy":3382,"half":3383,"ially":3384,"ken":3385,"lings":3386,"pond":3387,"rance":3388,"sider":3389,"tuse":3390,"uid":3391,"wan":3392,"ying":3393,"Ġtou":3394,"Ġtrain":3395,"Ġtired":3396,".|||,":3397,"Ġaxis":3398,"Ġsin":3399,"Ġser":3400,"Ġsqu":3401,"Ġsound":3402,"eria":3403,"Ġgroc":3404,"Ġben":3405,"Ġbath":3406,"Ġbinomial":3407,"Ġmet":3408,"Ġfield":3409,"Ġpounds":3410,"Ġpacket":3411,"Ġcros":3412,"lev":3413,"then":3414,"Ġli":3415,"Ġlay":3416,"arner":3417,"arry":3418,"Ġweird":3419,"Ġwedge":3420,"iding":3421,"Ġrun":3422,"edback":3423,"Ġanal":3424,"uts":3425,"Ġshoes":3426,"Ġshorter":3427,"plication":3428,"Ġmeant":3429,"ivea":3430,"Ġ26":3431,"Ġ31":3432,"Ġ35":3433,"Ġproving":3434,"arent":3435,"While":3436,"Ġtrig":3437,"Ġworkout":3438,"iel":3439,"Ġcomfort":3440,"ĠAdd":3441,"ĠAnderson":3442,"Ġ105":3443,"Ġinte":3444,"Ġpop":3445,"nderstand":3446,"Isn":3447,"Ġunderne":3448,"ĠCarston":3449,"Ġstring":3450,"ought":3451,"Ġhelping":3452,"Ġcoins":3453,"Ġsections":3454,"Ġfeedback":3455,"Ġblock":3456,"iable":3457,"Ġessen":3458,"ility":3459,"Ġdisplay":3460,"Ġbuild":3461,"Ġhappy":3462,"ĠKell":3463,"Step":3464,"Ġ1000":3465,"ĠSAT":3466,"ĠSwan":3467,"Ġflash":3468,"Ġclasses":3469,"Ġclassroom":3470,"Ġscience":3471,"ĠEthan":3472,"ĠEmily":3473,"Ġpatient":3474,"Ġconvert":3475,"rian":3476,"Ġsigns":3477,"Ġsimplest":3478,"Ġteaching":3479,"Standard":3480,"ĠNathan":3481,"ithya":3482,"Ġfewest":3483,"Ġslate":3484,"Ġclearance":3485,"Ġbottle":3486,"Multiplication":3487,"Ġart":3488,"ĠWes":3489,"Ġresul":3490,"Ġconstr":3491,"Ġinterse":3492,"Ġdrop":3493,"Ġstaying":3494,"Ġcream":3495,"Ġcounting":3496,"Ġvariable":3497,"Ġadv":3498,"Ġsinging":3499,"Ġchecked":3500,"Ġentrance":3501,"Ġquadrants":3502,"Ġcolumns":3503,"Ġabsolutely":3504,"Ġdistribute":3505,"Ġdetermine":3506,"Obviously":3507,"Ġoperations":3508,"Ġbulle":3509,"Ġrestrictions":3510,"Estim":3511,"medi":3512,"Ġsiblings":3513,"Ġstraws":3514,"ĠAbby":3515,"Ġimproper":3516,"pecially":3517,"Ġtitle":3518,"Ġmachine":3519,"Ġcriteria":3520,"autiful":3521,"Ġexcited":3522,"Solve":3523,"Ġappreciate":3524,"Hopefully":3525,"Ġgrocery":3526,"Ġbathroom":3527,"Ġunderneath":3528,"Ġessential":3529,"ĠSwanson":3530,"42":3531,"Kailey":3532,"People":3533,"but":3534,"do":3535,"equal":3536,"ness":3537,"ĠOkay":3538,"Ġwholes":3539,"Ġsale":3540,"Ġreference":3541,"Ġassign":3542,"Ġquotient":3543,"Cl":3544,"ina":3545,"Ġknowled":3546,"ather":3547,"Ġspeak":3548,"Beep":3549,"Ġdiagram":3550,"Ġburrit":3551,"Ġknowledge":3552,"Fig":3553,"Ġreach":3554,"Figure":3555,").":3556,"Ġtonight":3557,"?|||.":3558,"Ġcatch":3559,"ĠAustin":3560,"Ġgrids":3561,"Ġslow":3562,"Gr":3563,"gr":3564,"Ġkit":3565,"Ġwarm":3566,"ĠColbert":3567,"Ġborrow":3568,"Sit":3569,"Ġonline":3570,"choice":3571,"Ġboat":3572,"-|||-":3573,"47":3574,"58":3575,"Back":3576,"Com":3577,"Comp":3578,"Dan":3579,"Fif":3580,"Graph":3581,"Gabby":3582,"Has":3583,"Int":3584,"Junior":3585,"Jayden":3586,"Kaitlyn":3587,"Luc":3588,"More":3589,"Olivia":3590,"Par":3591,"Pris":3592,"Sam":3593,"],":3594,"cl":3595,"cus":3596,"cuse":3597,"eor":3598,"eah":3599,"go":3600,"gia":3601,"ien":3602,"ias":3603,"ious":3604,"ki":3605,"ments":3606,"now":3607,"nter":3608,"over":3609,"pen":3610,"point":3611,"rive":3612,"Ġ<":3613,"Ġer":3614,"ĠNe":3615,"Ġtechnically":3616,"Ġthumb":3617,"Ġthrow":3618,"Ġthrew":3619,"Ġaud":3620,"atre":3621,"Ġtheatre":3622,"Ġtown":3623,"Ġhoping":3624,"Ġbought":3625,"Ġpul":3626,"Ġcreat":3627,"any":3628,"Ġitems":3629,"Ġdog":3630,"Ġland":3631,"Ġluck":3632,"Ġeuros":3633,"Ġbeautiful":3634,"stood":3635,"Ġreread":3636,"Ġrelev":3637,"Ġshell":3638,"Ġneither":3639,"vers":3640,"Ġstam":3641,"Ġstate":3642,"Ġkid":3643,"Ġupfr":3644,"ulous":3645,"Ġknows":3646,"Ġliked":3647,"Ġexcept":3648,"Ġextr":3649,"enty":3650,"Ġasks":3651,"Ġequally":3652,"roud":3653,"Ġbutton":3654,"Ġfours":3655,"Ġfacts":3656,"Ġ53":3657,"Ġ528":3658,"ffect":3659,"embered":3660,"phas":3661,"ĠAl":3662,"ĠAiden":3663,"Ġexplore":3664,"Ġ680":3665,"ubrey":3666,"abulous":3667,"Ġpoly":3668,"Ġnobody":3669,"Isabella":3670,"Ġuses":3671,"Ġusually":3672,"Ġunderstood":3673,"ĠCynthia":3674,"ĠBen":3675,"Ġ73":3676,"Ġ76":3677,"Ġsolid":3678,"Ġprinc":3679,"Ġ98":3680,"Ġ900":3681,"Ġroll":3682,"Ġhelped":3683,"120":3684,"Ġ\"|||":3685,"Answ":3686,"Ġoffice":3687,"Going":3688,"Ġstuck":3689,"aitlin":3690,"Ġfunny":3691,"ipal":3692,"iproc":3693,"illed":3694,"Ġkept":3695,"Ġcubed":3696,"Ġsevenths":3697,"Area":3698,"Ġpretend":3699,"Ġcounter":3700,"Ġsubtracted":3701,"Ġfluid":3702,"Ġlisted":3703,"Excuse":3704,"Something":3705,"Charlie":3706,"Ġscor":3707,"ĠGeor":3708,"Ġtriangles":3709,"Ġoptions":3710,"ĠEli":3711,"ĠTarget":3712,"ordan":3713,"Ġguesses":3714,"Ġraising":3715,"Ġsums":3716,"Ġsimplified":3717,"ketch":3718,"Ġteachers":3719,"Ġmatters":3720,"Ġweeks":3721,"Ġarrive":3722,"ĠIsabel":3723,"Ġrefresh":3724,"Ġphrase":3725,"Ġappear":3726,"Ġcounted":3727,"Ġdefinition":3728,"Ġbroken":3729,"Ġallowed":3730,"aneous":3731,"Tenths":3732,"Ġwalked":3733,"Ġsisters":3734,"Ġnotebook":3735,"Ġinclude":3736,"ĠOwen":3737,"Ġbags":3738,"ĠJuliana":3739,"Ġrelated":3740,"Ġgeneral":3741,"Minus":3742,"Ġemphas":3743,"Ġdealing":3744,"Ġplugging":3745,"Ġrespons":3746,"Ġparabola":3747,"Ġrewritten":3748,"Ġinvolve":3749,"Ġaccurate":3750,"Ġforever":3751,"Ġbrackets":3752,"Ġretake":3753,"Diff":3754,"Twenty":3755,"Ġmeters":3756,"arently":3757,"Ġinteger":3758,"Ġintersect":3759,"Prism":3760,"ĠNeve":3761,"Ġpulled":3762,"Ġshells":3763,"Ġupfront":3764,"Ġextraneous":3765,"Ġprincipal":3766,"iprocal":3767,"ĠGeorgia":3768,"Dude":3769,"Ph":3770,"can":3771,"could":3772,"cad":3773,"outh":3774,"Ġhang":3775,"Ġpow":3776,"acy":3777,"str":3778,"Thumbs":3779,"Nobody":3780,"emic":3781,"ĠAddy":3782,"ĠAlex":3783,"pport":3784,"Ġhasn":3785,"Ġ205":3786,"ĠMs":3787,"Ġseventh":3788,"Anything":3789,"Ġversus":3790,"Ġmatched":3791,"Ġmeasuring":3792,"Ġparenthesis":3793,"Ġappro":3794,"Ġsticks":3795,"Really":3796,"Ġposters":3797,"aleb":3798,"Ġenter":3799,"Ġaverage":3800,"Ġmusic":3801,"ĠSupport":3802,"cademic":3803,"Ar":3804,"cle":3805,"Ġtic":3806,"ining":3807,"Ġduring":3808,"Ġcand":3809,"omas":3810,"Ġfamili":3811,"Ġseems":3812,"Ġvolunteer":3813,"Ġburritos":3814,"Ġticket":3815,"Ġfamiliar":3816,"Ġ--":3817,"Ġrecess":3818,"41":3819,"Ġrealized":3820,"fif":3821,"rary":3822,"tiv":3823,"Ġmotiv":3824,"Ġpartitioned":3825,"ibrary":3826,")?|||":3827,"az":3828,"?|||[":3829,"icul":3830,"ubble":3831,"Ġpicked":3832,"Ġphones":3833,"ean":3834,"Ġcr":3835,"Ġclean":3836,"Ġslip":3837,"Ġstruggling":3838,"-(":3839,"03":3840,"38":3841,"53":3842,"500":3843,"64":3844,"81":3845,"84":3846,"87":3847,"Cool":3848,"Cooper":3849,"Du":3850,"Grant":3851,"His":3852,"Hailey":3853,"Half":3854,"Len":3855,"Miriam":3856,"Murphy":3857,"Normally":3858,"Pay":3859,"Sum":3860,"Tangent":3861,"Using":3862,"Wes":3863,"Were":3864,"aac":3865,"aving":3866,"bs":3867,"dy":3868,"dney":3869,"eet":3870,"gn":3871,"gth":3872,"here":3873,"hed":3874,"iant":3875,"ities":3876,"la":3877,"min":3878,"mend":3879,"nis":3880,"nces":3881,"oon":3882,"oph":3883,"pid":3884,"pose":3885,"pect":3886,"ror":3887,"turn":3888,"ua":3889,"ued":3890,"uce":3891,"vin":3892,"vie":3893,"via":3894,"xes":3895,"ydney":3896,"Ġ>":3897,"ĠQ":3898,"ĠThat":3899,"ĠAll":3900,"ĠWell":3901,"ĠDoes":3902,"ĠRight":3903,"Ġtem":3904,"Ġtip":3905,"Ġaw":3906,"Ġact":3907,"inet":3908,"inci":3909,"rent":3910,"Ġsle":3911,"Ġswe":3912,"Ġsilent":3913,"Ġsketch":3914,"Ġowe":3915,"Ġdude":3916,"Ġgon":3917,"Ġgames":3918,"Ġhers":3919,"Ġheck":3920,"Ġbrough":3921,"Ġmed":3922,"Ġmass":3923,"Ġfac":3924,"Ġpot":3925,"Ġpound":3926,"Ġportion":3927,"Ġproud":3928,"Ġcause":3929,"Ġcra":3930,"Ġcup":3931,"Ġcities":3932,"vered":3933,"onal":3934,"Ġgosh":3935,"set":3936,"ens":3937,"aya":3938,"Ġlim":3939,"Ġlaugh":3940,"Ġliving":3941,"Ġweight":3942,"ommend":3943,"Ġinput":3944,"erent":3945,"Ġrout":3946,"kend":3947,"Ġrent":3948,"asing":3949,"Ġshir":3950,"Ġshop":3951,"plate":3952,"imin":3953,"ants":3954,"Ġ29":3955,"ception":3956,"ions":3957,"Ġexper":3958,"Ġ350":3959,"aked":3960,"Ġprop":3961,"Nope":3962,"Ġhearing":3963,"Ġthinks":3964,"Ġparty":3965,"Ġthemselves":3966,"Ġ512":3967,"Ġchar":3968,"Ġchip":3969,"Ġworksh":3970,"Ġboy":3971,"Ġpast":3972,"ĠAs":3973,"Ġzone":3974,"Ġ63":3975,"Ġotherwise":3976,"Ġvoice":3977,"Ġdifferences":3978,"Ġconsen":3979,"Ġweren":3980,"ification":3981,"Ġshowdown":3982,"Ġtape":3983,"ĠCass":3984,"ĠCarter":3985,"ĠBecca":3986,"Ġstruct":3987,"Ġ96":3988,"Ġamong":3989,"Ġgraphed":3990,"Ġpark":3991,"Ġ121":3992,"Ġcoach":3993,"Ġcovered":3994,"Ġhalfway":3995,"Ġmovie":3996,"ĠJJ":3997,"ĠJaden":3998,"Ġpointing":3999,"aster":4000,"Intercept":4001,"Ġstupid":4002,"ecture":4003,"Ġradius":4004,"ĠMichael":4005,"ĠMicah":4006,"Ġdrawn":4007,"agan":4008,"agus":4009,"Ġspots":4010,"Ġsubdiv":4011,"Ġ152":4012,"Ġeasily":4013,"Ġeasiest":4014,"ĠKy":4015,"Ġsuper":4016,"Whoa":4017,"Ġmoved":4018,"Ġgreatest":4019,"Ġimmedi":4020,"Ġelimin":4021,"Ġtesting":4022,"Ġkinds":4023,"Ġkeeps":4024,"Ġtennis":4025,"Ġ168":4026,"Ġ169":4027,"ĠSil":4028,"ĠSav":4029,"Ġstands":4030,"Ġplayed":4031,"Ġsetup":4032,"Ġbasket":4033,"Except":4034,"Someone":4035,"Ġrecommend":4036,"ĠChase":4037,"ĠChloe":4038,"aps":4039,"ential":4040,"Ġscore":4041,"Ġscale":4042,"Ġscribe":4043,"ogram":4044,"Ġ130":4045,"ĠTues":4046,"Ġfifteen":4047,"Ġ240":4048,"ĠDe":4049,"ĠDan":4050,"Always":4051,"ĠLeo":4052,"ĠLarry":4053,"Ġspecial":4054,"Ġ118":4055,"Ġmiscon":4056,"Ġslates":4057,"Ġpurpose":4058,"Ġtrickier":4059,"Ġspecifically":4060,"Adding":4061,"Addie":4062,"Ġweekend":4063,"uctive":4064,"âĪļ":4065,"Ġtypically":4066,"Ġoldest":4067,"Ġdropped":4068,"Ġtextbooks":4069,"Ġconcepts":4070,"Ġassum":4071,"exie":4072,"ĠâĪĽ":4073,"Ġwatching":4074,"Ġdefined":4075,"Ġswitched":4076,"Ġsummarizing":4077,"Ġbroke":4078,"Ġpizzaria":4079,"Ġparaphr":4080,"Ġmarked":4081,"Ġchoosing":4082,"Time":4083,"Ġtargets":4084,"Ġeats":4085,"Ġjustice":4086,"Ġshading":4087,"Ġ752":4088,"Ġapplause":4089,"ĠZack":4090,"Ġtravel":4091,"About":4092,"Abby":4093,"Mrs":4094,"backg":4095,"Ġcurrent":4096,"Ġquotients":4097,"ology":4098,"Ġplugged":4099,"Ġinterpreting":4100,"Ġrandomly":4101,"ilities":4102,"Otherwise":4103,"Ġbills":4104,"Ġparents":4105,"Ġpossibility":4106,"Ġparallelogram":4107,"Unit":4108,"Ġdistraction":4109,"Pretty":4110,"Strings":4111,"Adjacent":4112,"Ġbench":4113,"Ġcrossing":4114,"Ġcomfortable":4115,"Estimate":4116,"Ġassignment":4117,"Ġrelevant":4118,"Ġstamps":4119,"Ġstatement":4120,"ĠAlison":4121,"Different":4122,"Length":4123,"hedron":4124,"minute":4125,"ophagus":4126,"Ġtemplate":4127,"inciple":4128,"Ġsleep":4129,"Ġgonna":4130,"Ġbrought":4131,"Ġrental":4132,"Ġshirt":4133,"Ġworksheet":4134,"Ġconsensus":4135,"Ġstructure":4136,"Ġimmediately":4137,"ĠTuesday":4138,"Kai":4139,"Power":4140,"Sc":4141,"fold":4142,"oves":4143,"ined":4144,"Ġmouth":4145,"onstr":4146,"Ġinch":4147,"Ġinequal":4148,"ĠAcademic":4149,"ĠMiss":4150,"Ġagainst":4151,"Ġpicking":4152,"Ġcommun":4153,"ĠGabby":4154,"Ġdescribe":4155,"ĠPr":4156,"Ġpowers":4157,"Ġcandy":4158,"Ġinequality":4159,"PAMP":4160,"Wednesday":4161,"ls":4162,"pack":4163,"Ann":4164,"Ġpress":4165,"Ġremembering":4166,"Ġscoo":4167,"Fractions":4168,"Ġsnacks":4169,"ĠKaylee":4170,"icity":4171,"Ġmultiplicity":4172,"55":4173,"?|||$":4174,"lly":4175,"sey":4176,"Ġlibrary":4177,"Ġdrawings":4178,").|||(":4179,"33":4180,"Ġ'":4181,"ĠÃĹ":4182,"reed":4183,"Ġdifficul":4184,"Ġpocket":4185,"Ġthoughts":4186,"Hel":4187,"hour":4188,"ni":4189,"Ġsug":4190,"Justin":4191,"ĠSean":4192,"Ġrealize":4193,"onday":4194,"Ġfairly":4195,"Help":4196,"Ġsuggest":4197,"''":4198,"450":4199,"51":4200,"600":4201,"70":4202,"99":4203,"?\"":4204,"Ac":4205,"Bella":4206,"Car":4207,"Cut":4208,"Col":4209,"Cub":4210,"Carl":4211,"Coun":4212,"Cotangent":4213,"Dis":4214,"Down":4215,"Dist":4216,"Eas":4217,"Ella":4218,"Eli":4219,"Emily":4220,"Hour":4221,"Hall":4222,"Jes":4223,"Julian":4224,"Joe":4225,"Know":4226,"Lo":4227,"Mar":4228,"Mod":4229,"Move":4230,"Nithya":4231,"Ninet":4232,"Out":4233,"Open":4234,"Po":4235,"Res":4236,"Ray":4237,"Rec":4238,"Sm":4239,"Sec":4240,"Sim":4241,"Still":4242,"Tot":4243,"Tri":4244,"Understand":4245,"Was":4246,"Walk":4247,"Yeah":4248,"Zer":4249,"app":4250,"bit":4251,"ced":4252,"cise":4253,"crib":4254,"did":4255,"eg":4256,"efin":4257,"etie":4258,"fric":4259,"gres":4260,"he":4261,"han":4262,"iti":4263,"kn":4264,"kes":4265,"low":4266,"like":4267,"late":4268,"life":4269,"mark":4270,"mates":4271,"nect":4272,"nah":4273,"oh":4274,"onder":4275,"opping":4276,"riting":4277,"uage":4278,"width":4279,"ym":4280,"zy":4281,"zero":4282,"âĤ":4283,"ĠNow":4284,"ĠThere":4285,"ĠSh":4286,"ĠâĤ":4287,"Ġter":4288,"Ġtreas":4289,"Ġthick":4290,"Ġaffect":4291,"intic":4292,"inks":4293,"Ġwin":4294,"Ġwave":4295,"Ġwonder":4296,"att":4297,"atio":4298,"atoes":4299,"Ġyard":4300,"Ġoops":4301,"Ġign":4302,"Ġdad":4303,"Ġdep":4304,"Ġdel":4305,"Ġgif":4306,"Ġhum":4307,"Ġbir":4308,"Ġbaked":4309,"Ġmust":4310,"Ġmicroph":4311,"Ġmessed":4312,"Ġfall":4313,"Ġfacing":4314,"Ġfanc":4315,"Ġfabulous":4316,"Ġfilled":4317,"Ġpol":4318,"vey":4319,"annah":4320,"leen":4321,"Ġnet":4322,"Ġnormally":4323,"orn":4324,"orad":4325,"oration":4326,"orsey":4327,"istic":4328,"thday":4329,"think":4330,"Ġiss":4331,"Ġhabit":4332,"Ġlang":4333,"Ġlower":4334,"ari":4335,"arr":4336,"arly":4337,"aroon":4338,"Ġevent":4339,"Ġearly":4340,"Ġ110":4341,"Ġ112":4342,"Ġring":4343,"Ġrounds":4344,"ics":4345,"icy":4346,"icon":4347,"utes":4348,"Ġjud":4349,"Ġjunior":4350,"Ġshown":4351,"Ġnear":4352,"Ġstage":4353,"Ġstopping":4354,"plied":4355,"Ġforward":4356,"ecking":4357,"Ġkidd":4358,"rol":4359,"Ġupside":4360,"Ġnotation":4361,"Ġ224":4362,"Ġ260":4363,"Ġknown":4364,"Ġorange":4365,"Ġdonuts":4366,"Ġdirect":4367,"Ġbecome":4368,"Nothing":4369,"Ġlearner":4370,"Ġleaving":4371,"gel":4372,"check":4373,"checking":4374,"Ġ412":4375,"Ġtrip":4376,"aining":4377,"Ġoverall":4378,"Ġoverthink":4379,"Ġ500":4380,"Doing":4381,"Ġche":4382,"Ġchest":4383,"Ġchalle":4384,"Ġchoices":4385,"Ġwhenever":4386,"Ġguessed":4387,"Ġboom":4388,"oln":4389,"Ġadds":4390,"Ġanywhere":4391,"ĠActually":4392,"ĠAfric":4393,"Ġpartnersh":4394,"Ġalph":4395,"Ġalone":4396,"Ġaltern":4397,"Ġ640":4398,"aby":4399,"Ġintrod":4400,"Ġmins":4401,"Ġconte":4402,"Ġconsider":4403,"ifies":4404,"ifted":4405,"Ġtast":4406,"Ġ81":4407,"Ġ87":4408,"Ġago":4409,"Ġfigures":4410,"ĠBrian":4411,"Ġ78":4412,"Ġ734":4413,"Ġgoodness":4414,"Ġtend":4415,"Ġprinciple":4416,"Ġrole":4417,"Ġ125":4418,"Ġtalks":4419,"âĢĭ":4420,"ĠJustin":4421,"ĠJohn":4422,"ĠJordan":4423,"125":4424,"Ġunkn":4425,"Ġ201":4426,"ĠMia":4427,"ĠMurphy":4428,"Ġremaining":4429,"Ġblack":4430,"Ġespecially":4431,"Ġesophagus":4432,"Ġdisapp":4433,"Ġbeta":4434,"Ġteammates":4435,"ĠKaitlyn":4436,"Ġ184":4437,"Ġ185":4438,"adratic":4439,"uctor":4440,"ucted":4441,"Ġimag":4442,"Ġimplied":4443,"ĠRussel":4444,"ĠRylan":4445,"Ġtests":4446,"Ġtermin":4447,"ĠSp":4448,"ĠSam":4449,"ĠSlate":4450,"Ġcomma":4451,"Yours":4452,"Ġvertic":4453,"Ġreciprocal":4454,"Chloe":4455,"tenth":4456,"Sean":4457,"Sevent":4458,"ĠGr":4459,"Ġdescrib":4460,"2020":4461,"Ġrestate":4462,"Ġ2000":4463,"Ġapolog":4464,"Ġsummer":4465,"Ġhardest":4466,"Ġ608":4467,"ences":4468,"ĠLiv":4469,"ĠNivea":4470,"Ġbars":4471,"Ġpulling":4472,"Ġmiss":4473,"Ġmeasured":4474,"Ġmeasures":4475,"2008":4476,"Ġdiscussing":4477,"Wouldn":4478,"Quintic":4479,"Ġreasoning":4480,"Ġslide":4481,"Ġslope":4482,"Ġplotting":4483,"Ġbringing":4484,"Ġcutting":4485,"Ġsentences":4486,"Ġsurvey":4487,"Ġmistakes":4488,"Ġ225":4489,"Ġbehold":4490,"Ġobviously":4491,"Ġobtuse":4492,"marks":4493,"Ġglad":4494,"Ġglue":4495,"Ġrespond":4496,"Ġolder":4497,"ĠIsabelle":4498,"Ġexploring":4499,"Ġexplorations":4500,"Ġstraightfor":4501,"Textbook":4502,"Ġrefle":4503,"Ġphot":4504,"Ġstays":4505,"Ġconceptual":4506,"Ġcontrol":4507,"Ġchairs":4508,"Ġfolded":4509,"360":4510,"ĠâĪĴ":4511,"Ġbrains":4512,"Ġadjacent":4513,"Ġmathematic":4514,"Ġexpected":4515,"Ġexpectations":4516,"retch":4517,"Ġpromise":4518,"Ġgraded":4519,"Ġsticky":4520,"umps":4521,"Ġshortcuts":4522,"464":4523,"Ġregards":4524,"Ġapplies":4525,"Ġcombining":4526,"Ġmidpoint":4527,"Squared":4528,"Ġstarred":4529,"Ġhighlighted":4530,"Based":4531,"Ġprofits":4532,"Ġtwelf":4533,"Ġcurve":4534,"Ġdiagonal":4535,"Minutes":4536,"incoln":4537,"ĠReagan":4538,"Ġinterpret":4539,"Haley":4540,"Ġtaxes":4541,"Ġwrap":4542,"ĠColorad":4543,"Bran":4544,"ĠDoki":4545,"thirds":4546,"Ġsystematic":4547,"Ġresponse":4548,"Ġpossibilities":4549,"Ġweighed":4550,"Ġrows":4551,"Ġdistract":4552,"ictor":4553,"Ġversions":4554,"Ġhurts":4555,"Ġcorner":4556,"Ġlowest":4557,"Ġundefin":4558,"Ġperformers":4559,"Ġflipped":4560,"Ġincorrectly":4561,"Ġsnowboard":4562,"Ġincluding":4563,"Ġseparate":4564,"ĠCox":4565,"Quickly":4566,"Equals":4567,"Ġtouch":4568,"Ġtraining":4569,"Ġsquaring":4570,"Ġbinomials":4571,"Ġlikes":4572,"Ġanaly":4573,"ĠAddison":4574,"Ġresults":4575,"Ġconstructed":4576,"Ġadvice":4577,"Ġbullets":4578,"grade":4579,"Comple":4580,"Compare":4581,"Lucien":4582,"Partial":4583,"cuss":4584,"Ġerror":4585,"Ġcreating":4586,"Ġlucky":4587,"Answer":4588,"Ġscorp":4589,"Ġarrived":4590,"Ġresponsible":4591,"Ġinvolved":4592,"-(-":4593,"Duke":4594,"Ġmedian":4595,"Ġpotatoes":4596,"Ġcrazy":4597,"Ġproportion":4598,"ĠSavannah":4599,"Ġbasketball":4600,"Ġmisconception":4601,"Ġassuming":4602,"Ġparaphrasing":4603,"background":4604,"Ġbenchmark":4605,"Scoot":4606,"Carson":4607,"Counter":4608,"Discuss":4609,"Distance":4610,"Hours":4611,"Hallway":4612,"Knowing":4613,"Ninety":4614,"Zeros":4615,"ĠâĤ¬":4616,"Ġtreasure":4617,"Ġbirthday":4618,"Ġmicrophones":4619,"Ġfancy":4620,"Ġlanguage":4621,"Ġjudge":4622,"Ġjuniors":4623,"Ġkidding":4624,"Ġchalleng":4625,"ĠAfrica":4626,"Ġcontext":4627,"Ġunknown":4628,"Seventy":4629,"Ġstraightforward":4630,"ĠColorado":4631,"Ġundefined":4632,"Caleb":4633,"Kell":4634,"Technically":4635,"fe":4636,".|||\"":4637,"reak":4638,"erial":4639,"Ġdem":4640,"icate":4641,"Ġstyle":4642,"uly":4643,"Ġtruly":4644,"Ġmaterial":4645,"Ġ304":4646,"Ġpred":4647,"pres":4648,"Chase":4649,"Ġscoot":4650,"ĠNave":4651,"Ġdisagreement":4652,"Ġeighth":4653,"Ġaccount":4654,"Ġcollect":4655,"Ġdemonstr":4656,"75":4657,"Kat":4658,"Ġshove":4659,"ooke":4660,"Ġwhoever":4661,"Ġplane":4662,"Ġbackpack":4663,"Ġ95":4664,"ĠJournal":4665,"arning":4666,"Ġcontain":4667,"Ġreviewing":4668,"Ġpassing":4669,"Ġcomputers":4670,"Ġspeaker":4671,"Ġscoop":4672,"rup":4673,"erv":4674,"Ġquizz":4675,"Ġquizzes":4676,"-?|||":4677,".|||$":4678,"?|||\"":4679,"Ġrate":4680,"aming":4681,"ryce":4682,"Fort":4683,"Ġbubble":4684,"Ġearn":4685,"ĠCan":4686,"ĠMonday":4687,"Ġrepresenting":4688,"Ġfolding":4689,"Ġmidnight":4690,"Cal":4691,"Ġnone":4692,"Ġfaster":4693,"azing":4694,"bie":4695,"ĠHere":4696,"Ġcry":4697,"arper":4698,"ĠAre":4699,"Ġfinishing":4700,"vious":4701,"Without":4702,"150":4703,"3Â²":4704,"44":4705,"82":4706,"85":4707,"800":4708,"=-":4709,"App":4710,"Aubrey":4711,"Big":4712,"Brian":4713,"Cos":4714,"Circ":4715,"Caitlin":4716,"Dec":4717,"Either":4718,"Erase":4719,"Emy":4720,"Eagle":4721,"Fin":4722,"Free":4723,"Fine":4724,"Group":4725,"Gentlemen":4726,"Grab":4727,"Head":4728,"Id":4729,"Im":4730,"Jus":4731,"Journal":4732,"Kyle":4733,"Less":4734,"Loc":4735,"Mike":4736,"Mine":4737,"Mark":4738,"Most":4739,"Nivea":4740,"Opp":4741,"Ord":4742,"Option":4743,"Pad":4744,"Pull":4745,"Pizz":4746,"Ren":4747,"Ret":4748,"Rate":4749,"Rational":4750,"Rylan":4751,"Set":4752,"Spe":4753,"Stic":4754,"Save":4755,"Sydney":4756,"Ty":4757,"Tool":4758,"Us":4759,"Watch":4760,"^âĢĭ":4761,"aul":4762,"aper":4763,"bru":4764,"cient":4765,"ding":4766,"every":4767,"eak":4768,"eled":4769,"eacher":4770,"ebru":4771,"found":4772,"fied":4773,"factor":4774,"gg":4775,"gart":4776,"hh":4777,"hip":4778,"ipped":4779,"look":4780,"ming":4781,"man":4782,"mas":4783,"mber":4784,"multi":4785,"membered":4786,"non":4787,"oy":4788,"ole":4789,"olly":4790,"pri":4791,"ptian":4792,"rome":4793,"rate":4794,"ried":4795,"some":4796,"six":4797,"since":4798,"tem":4799,"uing":4800,"uth":4801,"uge":4802,"uitive":4803,"understand":4804,"vail":4805,"would":4806,"xs":4807,"yth":4808,"zie":4809,"¼low":4810,"Ã¼low":4811,"Ġ/":4812,"ĠHow":4813,"ĠThen":4814,"ĠWhen":4815,"ĠWhere":4816,"ĠShe":4817,"Ġenc":4818,"ĠShawn":4819,"Ġtan":4820,"Ġtreat":4821,"Ġtile":4822,"Ġtechn":4823,"Ġair":4824,"Ġage":4825,"Ġape":4826,"Ġaxes":4827,"Ġavail":4828,"inny":4829,"ren":4830,"rease":4831,"remembered":4832,"ats":4833,"atu":4834,"atum":4835,"Ġsad":4836,"Ġsass":4837,"ĠiPad":4838,"ern":4839,"ergart":4840,"Ġdra":4841,"Ġgather":4842,"Ġhot":4843,"Ġhol":4844,"Ġhide":4845,"Ġhuge":4846,"Ġban":4847,"Ġbra":4848,"Ġbiz":4849,"Ġbatt":4850,"Ġbaby":4851,"Ġmeter":4852,"Ġmaster":4853,"Ġfel":4854,"Ġfire":4855,"Ġfives":4856,"Ġpor":4857,"Ġpas":4858,"Ġplent":4859,"Ġpuzz":4860,"Ġpumps":4861,"Ġcore":4862,"Ġcray":4863,"onest":4864,"onnect":4865,"ana":4866,"aness":4867,"Ġnon":4868,"Ġnth":4869,"Ġnines":4870,"Ġnuts":4871,"ĠIn":4872,"llab":4873,"isa":4874,"seven":4875,"tha":4876,"this":4877,"there":4878,"though":4879,"enly":4880,"enzie":4881,"aylen":4882,"Ġlie":4883,"Ġlog":4884,"Ġlining":4885,"igg":4886,"ars":4887,"arison":4888,"Ġeff":4889,"Ġeval":4890,"Ġeagle":4891,"Ġbeach":4892,"Ġbeating":4893,"idy":4894,"oman":4895,"Thir":4896,"Thomas":4897,"alah":4898,"ighths":4899,"Ġray":4900,"Ġrub":4901,"Ġratio":4902,"Ġyourselves":4903,"edown":4904,"Ġwhose":4905,"ican":4906,"Ġanimal":4907,"Ġanni":4908,"Ġwild":4909,"Ġrepl":4910,"Ġsoph":4911,"uta":4912,"uting":4913,"utumn":4914,"Ġshit":4915,"Ġshot":4916,"Ġshel":4917,"Ġneat":4918,"ustr":4919,"Ġwithin":4920,"Ġkah":4921,"oose":4922,"Ġmember":4923,"irian":4924,"Ġupto":4925,"Ġupset":4926,"artment":4927,"immy":4928,"Ġattend":4929,"Ġattem":4930,"Ġfrustr":4931,"Ġ250":4932,"Ġ216":4933,"Ġ217":4934,"Its":4935,"Ġlikely":4936,"allest":4937,"Ġsend":4938,"Ġsequ":4939,"Ġsearch":4940,"oddy":4941,"Ġextend":4942,"Ġ33":4943,"Ġ312":4944,"Ġdizz":4945,"Ġproves":4946,"Ġprops":4947,"Ġprogres":4948,"Ġsomehow":4949,"lyhedron":4950,"Ġwanting":4951,"Ġworried":4952,"ationsh":4953,"raising":4954,"Ġhey":4955,"Ġhell":4956,"Ġheater":4957,"Ġtimer":4958,"ters":4959,"ackenzie":4960,"chuck":4961,"orean":4962,"anda":4963,"andra":4964,"inear":4965,"Ġplacing":4966,"Ġ464":4967,"Ġtrust":4968,"Ġtrinomial":4969,"urf":4970,"Ġthingy":4971,"Ġoverl":4972,"osing":4973,"Ġtheme":4974,"Ġ.|||.|||":4975,"Ġ59":4976,"Ġ511":4977,"Ġchick":4978,"Ġchop":4979,"Ġchild":4980,"una":4981,"une":4982,"ung":4983,"unter":4984,"unately":4985,"arden":4986,"Ġclosed":4987,"Ġanyway":4988,"Ġputs":4989,"ĠAnd":4990,"ĠAmer":4991,"ĠAubrey":4992,"Ġalto":4993,"Ġ66":4994,"Ġdiffers":4995,"Lets":4996,"abet":4997,"ppy":4998,"pper":4999,"Ġmeaning":5000,"Ġexplains":5001,"Ġzeroes":5002,"Ġagreed":5003,"ĠCl":5004,"ĠCaitlin":5005,"ĠBe":5006,"ĠBecause":5007,"ĠBella":5008,"ĠBryce":5009,"ĠBÃ¼low":5010,"Ġ79":5011,"ceptable":5012,"Ġstray":5013,"Ġstrips":5014,"Ġletting":5015,"Ġreads":5016,"Share":5017,"Ġcond":5018,"Ġcollab":5019,"leship":5020,"Ġmob":5021,"Ġsecret":5022,"ĠJoe":5023,"ĠJane":5024,"ominic":5025,"Ġunless":5026,"Inches":5027,"Ġmodeled":5028,"Ġdecreasing":5029,"Ġradiant":5030,"ĠMa":5031,"Ġremembered":5032,"Ġbless":5033,"aging":5034,"agon":5035,"agic":5036,"agorean":5037,"Ġsport":5038,"iah":5039,"opic":5040,"ilt":5041,"Ġtheirs":5042,"Ġagreement":5043,"Ġdividend":5044,"Ġbuys":5045,"Ġbucket":5046,"Ġfinally":5047,"Ġestimates":5048,"ĠKans":5049,"ĠKoh":5050,"ĠKuta":5051,"Ġ186":5052,"Ġsudd":5053,"Whole":5054,"Whoever":5055,"Ġdev":5056,"Ġdevel":5057,"Ġgram":5058,"ĠRay":5059,"ĠRemember":5060,"Ġkindergart":5061,"Ġkeeping":5062,"Ġsynon":5063,"Ġstudying":5064,"Looks":5065,"Ġdivisions":5066,"Ġbits":5067,"Ġnumerators":5068,"Ġcompany":5069,"Ġcomparison":5070,"Ġcalculation":5071,"Ġcalculate":5072,"Ġcomments":5073,"Ġrevis":5074,"Somehow":5075,"sions":5076,"Fourths":5077,"Ġhanding":5078,"ysis":5079,"Ġverbs":5080,"Ġrectil":5081,"Ġacqu":5082,"Ġactive":5083,"Ġaccess":5084,"ĠChap":5085,"ĠChrist":5086,"ĠChrome":5087,"kits":5088,"entify":5089,"Ġhundreds":5090,"Ġdesert":5091,"shlyn":5092,"Ġdiscusse":5093,"Ġdisconnect":5094,"Ġ131":5095,"Showdown":5096,"Ġequivalents":5097,"ĠHailey":5098,"ĠHunter":5099,"ĠEgy":5100,"ĠTeacher":5101,"Ġprocesses":5102,"Ġcompleting":5103,"303":5104,"rections":5105,"Ġconverting":5106,"Ġ2008":5107,"ears":5108,"Ġ140":5109,"Ġ146":5110,"Ġguessing":5111,"Ġheads":5112,"Ġdrink":5113,"Ġdrinks":5114,"Ġsimpler":5115,"lement":5116,"Ġlengths":5117,"Ġexponential":5118,"Ġlisteners":5119,"ĠPyth":5120,"Ġskinny":5121,"ĠLexie":5122,"ĠLincoln":5123,"Ġinstance":5124,"ĠNithya":5125,"Ġmisunderstand":5126,"Ġmisremembered":5127,"246":5128,"Ġmeasurements":5129,"books":5130,"Ġcompletely":5131,"Quiet":5132,"Quadratic":5133,"Ġslash":5134,"Ġparticularly":5135,"Ġ192":5136,"Ġopening":5137,"Ġopened":5138,"respon":5139,"Ġcompared":5140,"Ġmonomial":5141,"Ġ222":5142,"Ġcubics":5143,"Ġloved":5144,"Ġglued":5145,"Ġresour":5146,"Ġrespect":5147,"270":5148,"Turning":5149,"ĠIsabella":5150,"ĠIsaac":5151,"Ġswive":5152,"Ġfoil":5153,"Ġsurfaces":5154,"Ġapparently":5155,"186":5156,"ĠFebru":5157,"Ġfreeze":5158,"193":5159,"367":5160,"reases":5161,"Ġswitching":5162,"Ġmathematically":5163,"Ġcopied":5164,"Ġexpecting":5165,"Ġsummary":5166,"ritney":5167,"Amanda":5168,"Ġrotations":5169,"Ġclipboard":5170,"Ġexpressions":5171,"Ġobject":5172,"Ġgrader":5173,"ĠVaness":5174,"Ġfocused":5175,"Ġtransition":5176,"ĠAnn":5177,"Ġvisualize":5178,"ckale":5179,"Ġapplication":5180,"Ġapplied":5181,"Ġdiscussions":5182,"Ġcamp":5183,"Ġcombined":5184,"sense":5185,"Ġmaxes":5186,"Ġconnecting":5187,"Ġconnected":5188,"Substitute":5189,"Ġ282":5190,"Ġhighlighter":5191,"Ġfocusing":5192,"Ġrelationsh":5193,"Ġbreads":5194,"Ġfinger":5195,"Ġlouder":5196,"ylvia":5197,"Ġmemorize":5198,"Ġgenerate":5199,"Ġreminders":5200,"Ġradicands":5201,"Conj":5202,"Consider":5203,"Flip":5204,"Factoring":5205,"reyson":5206,"Ġemail":5207,"ĠReed":5208,"Ġwrapping":5209,"Ġwrapper":5210,"Ġstruggle":5211,"Obtuse":5212,"ĠDoyle":5213,"Ġoperation":5214,"Ġcertainly":5215,"Ġrestriction":5216,"William":5217,"Death":5218,"fourths":5219,"anced":5220,"Ġrewriting":5221,"Ġmonthly":5222,"Ġtranslation":5223,"Ġinvolves":5224,"Ġlateral":5225,"Ġundo":5226,"Ġconjug":5227,"Ġconjecture":5228,"Ġincluded":5229,"Ġtouches":5230,"Ġanalysis":5231,"ĠAddie":5232,"Ġpopul":5233,"Ġbuilding":5234,"ĠKelly":5235,"ĠKellan":5236,"Ġconstructive":5237,"Ġbullet":5238,"Close":5239,"Danny":5240,"Daniel":5241,"Fifteen":5242,"Ġaudio":5243,"versary":5244,"Ġrolling":5245,"ĠIsabela":5246,"Ġemphasis":5247,"ĠNeveia":5248,"ĠNeveah":5249,"Ġappropri":5250,"Artie":5251,"Ġtickets":5252,"fifth":5253,"Ġawful":5254,"Ġsweetie":5255,"Ġfacedown":5256,"Ġcaused":5257,"Ġlimited":5258,"Ġroute":5259,"Ġcharact":5260,"Ġsubdividing":5261,"ĠSilicon":5262,"ĠDaniel":5263,"Ġtraveling":5264,"ĠPrice":5265,"Carlos":5266,"Jesus":5267,"Smallest":5268,"Second":5269,"Triangle":5270,"Ġterrit":5271,"Ġthicker":5272,"Ġignore":5273,"Ġdepartment":5274,"Ġhumans":5275,"leenex":5276,"isticated":5277,"Ġissue":5278,"Ġeventually":5279,"Ġalphabet":5280,"Ġtastes":5281,"Ġterminology":5282,"Ġapologize":5283,"Ġreflect":5284,"Ġphoto":5285,"Ġmathematician":5286,"Ġtwelfths":5287,"Ġanalyze":5288,"Complete":5289,"Ġscorpions":5290,"Counterclockwise":5291,"Ġchallenging":5292,"ervous":5293,"Apparently":5294,"Cosine":5295,"Circle":5296,"Finish":5297,"Identify":5298,"Order":5299,"Pizzaria":5300,"Stick":5301,"Toolkits":5302,"ptians":5303,"Ġapex":5304,"Ġavailable":5305,"Ġdrag":5306,"Ġholiday":5307,"Ġbrave":5308,"Ġbattleship":5309,"Ġfelt":5310,"Ġportions":5311,"Ġpassed":5312,"Ġplenty":5313,"Ġcrayon":5314,"Ġevalu":5315,"alahari":5316,"Ġrubric":5317,"Ġanniversary":5318,"Ġsophisticated":5319,"Ġkahuna":5320,"Ġmembers":5321,"Ġattempt":5322,"Ġdizzy":5323,"chuckles":5324,"ĠAmerican":5325,"Ġaltogether":5326,"ĠKansas":5327,"ĠKohl":5328,"Ġkindergarten":5329,"Ġsynonym":5330,"Ġrectilinear":5331,"ĠChristmas":5332,"ĠChromebooks":5333,"Ġdiscussed":5334,"ĠEgyptians":5335,"ĠPythagorean":5336,"Ġmisunderstanding":5337,"response":5338,"ĠFebruary":5339,"ĠVanessa":5340,"Ġappropriate":5341,"43":5342,"Cross":5343,"Jane":5344,"aled":5345,"cing":5346,"lie":5347,"yan":5348,"Ġwall":5349,"Ġboun":5350,"Ġfreak":5351,"Ġloves":5352,"Ġ39":5353,"Ġworst":5354,"Ġplain":5355,"Ġsaving":5356,"Ġsafe":5357,"Ġ108":5358,"Stud":5359,"ĠRyan":5360,"Ġsetting":5361,"Ġorders":5362,"Ġ01":5363,"ĠGarret":5364,"Almost":5365,"Ġapplying":5366,"ĠâĪľ":5367,"Repl":5368,"Ġtaller":5369,"Kaylee":5370,"Grady":5371,"Ġwarmup":5372,"Phones":5373,"Ġhanging":5374,"Ġbouncing":5375,"700":5376,"Aiden":5377,"Match":5378,"Nathan":5379,"gu":5380,"ma":5381,"number":5382,"Ġgrand":5383,"idual":5384,"Ġrather":5385,"Ġscen":5386,"ormal":5387,"Ġindiv":5388,"Ġcontents":5389,"Ġhits":5390,"ĠThomas":5391,"Ġearned":5392,"\"?|||":5393,"%?|||":5394,",-|||":5395,"|||-":5396,".|||+":5397,"ario":5398,"Welcome":5399,"Ġdisrup":5400,"?|||(-":5401,".|||(-":5402,"Ġmotivation":5403,"''.|||":5404,"Ġdisruptive":5405,"gan":5406,"Ġnaming":5407,"Ġorgan":5408,"Ġhurry":5409,"Ġreferring":5410,"folding":5411,"Ġcrying":5412,"57":5413,"Ġrepresentation":5414,"fifths":5415,"Forty":5416,".|||\"|||":5417,"?|||?|||":5418,"Ġgod":5419,"Ġperc":5420,"Ġamazing":5421,"--|||.|||":5422,"Ġdifficult":5423,"..":5424,"]?":5425,"aw":5426,"pic":5427,"angular":5428,"Ġblind":5429,"Ġrectangular":5430,"Ġprevious":5431,"Ġbarbie":5432,"\".":5433,")^":5434,"224":5435,"350":5436,"66":5437,"68":5438,"76":5439,"77":5440,"78":5441,"852":5442,"91":5443,"93":5444,"96":5445,"98":5446,"900":5447,":[":5448,"Ah":5449,"Avery":5450,"Aud":5451,"Ava":5452,"Ashlyn":5453,"Bl":5454,"Bu":5455,"Bank":5456,"Bill":5457,"Becca":5458,"Cle":5459,"Call":5460,"Cain":5461,"Cass":5462,"Count":5463,"Dou":5464,"Dorsey":5465,"El":5466,"Equ":5467,"Euros":5468,"Eva":5469,"Eighths":5470,"Fill":5471,"Fabulous":5472,"Gen":5473,"God":5474,"Game":5475,"Gosh":5476,"Her":5477,"Hor":5478,"High":5479,"Hand":5480,"Hidden":5481,"Hayden":5482,"Harper":5483,"Honest":5484,"JB":5485,"JD":5486,"JJ":5487,"Jen":5488,"James":5489,"Jared":5490,"Jaden":5491,"Jordan":5492,"Ka":5493,"Ky":5494,"Lar":5495,"Light":5496,"Line":5497,"Liv":5498,"Leo":5499,"Lily":5500,"Later":5501,"Liam":5502,"Larry":5503,"Lexie":5504,"Ma":5505,"Mem":5506,"Much":5507,"Mister":5508,"Mirian":5509,"Mackenzie":5510,"Mckale":5511,"Num":5512,"Nick":5513,"Never":5514,"Naya":5515,"Pi":5516,"Pam":5517,"Pie":5518,"Pard":5519,"Pres":5520,"Pyram":5521,"Point":5522,"Paul":5523,"RB":5524,"Rad":5525,"Rect":5526,"Roman":5527,"Su":5528,"Sw":5529,"Sine":5530,"School":5531,"Surf":5532,"Ta":5533,"Tay":5534,"Taking":5535,"Vocabulary":5536,"Varoon":5537,"Victor":5538,"Writing":5539,"Yay":5540,"Years":5541,"Zack":5542,"Zach":5543,"_=":5544,"aven":5545,"away":5546,"bl":5547,"bu":5548,"bon":5549,"brate":5550,"cur":5551,"cos":5552,"cakes":5553,"cial":5554,"creasing":5555,"corn":5556,"cern":5557,"don":5558,"ded":5559,"dam":5560,"date":5561,"ele":5562,"een":5563,"eight":5564,"eed":5565,"effic":5566,"fast":5567,"fresh":5568,"field":5569,"gat":5570,"gon":5571,"gone":5572,"group":5573,"girl":5574,"hind":5575,"hand":5576,"iqu":5577,"ium":5578,"ios":5579,"iled":5580,"ients":5581,"itions":5582,"iously":5583,"iya":5584,"ji":5585,"jor":5586,"ject":5587,"kind":5588,"lan":5589,"lish":5590,"laugh":5591,"lifted":5592,"mat":5593,"mis":5594,"mune":5595,"nack":5596,"name":5597,"okay":5598,"pa":5599,"pand":5600,"port":5601,"pically":5602,"pris":5603,"pair":5604,"pective":5605,"su":5606,"sin":5607,"ser":5608,"ses":5609,"square":5610,"sib":5611,"scribe":5612,"silent":5613,"two":5614,"talk":5615,"tlin":5616,"topic":5617,"ution":5618,"uro":5619,"uction":5620,"uish":5621,"ware":5622,"with":5623,"writing":5624,"xwhat":5625,"xious":5626,"ye":5627,"zan":5628,"Â½":5629,"ĠWh":5630,"Ġven":5631,"ĠThank":5632,"ĠGo":5633,"ĠSt":5634,"ĠWho":5635,"ĠThink":5636,"ĠEverybody":5637,"ĠWait":5638,"ĠOr":5639,"ĠFirst":5640,"ĠExpl":5641,"ĠStop":5642,"Ġounce":5643,"ĠExample":5644,"ĠQuintic":5645,"ĠÂ½":5646,"Ġtum":5647,"Ġtough":5648,"Ġtied":5649,"Ġthir":5650,"inking":5651,"inating":5652,"ream":5653,"Ġwow":5654,"Ġwack":5655,"Ġwore":5656,"Ġwide":5657,"Ġwast":5658,"Ġwise":5659,"Ġwish":5660,"Ġwarning":5661,"atches":5662,"Ġsch":5663,"Ġsiz":5664,"Ġtheory":5665,"Ġtock":5666,"Ġtomat":5667,"erc":5668,"eration":5669,"erry":5670,"ergy":5671,"ington":5672,"inguish":5673,"Ġdict":5674,"Ġgain":5675,"Ġgiant":5676,"Ġgarden":5677,"Ġhint":5678,"Ġhoney":5679,"Ġhire":5680,"Ġhiding":5681,"Ġhung":5682,"Ġbes":5683,"Ġbac":5684,"Ġbrand":5685,"Ġbabe":5686,"Ġmad":5687,"Ġmec":5688,"Ġmention":5689,"Ġmagic":5690,"ester":5691,"Ġfad":5692,"Ġfol":5693,"Ġfund":5694,"Ġfixed":5695,"Ġfresh":5696,"Ġpent":5697,"Ġpra":5698,"Ġpool":5699,"Ġpeak":5700,"Ġcum":5701,"Ġcateg":5702,"Ġcap":5703,"Ġcute":5704,"Ġcush":5705,"Ġcele":5706,"oner":5707,"onent":5708,"onio":5709,"anol":5710,"anley":5711,"anaya":5712,"leven":5713,"lection":5714,"leng":5715,"Ġnar":5716,"Ġnose":5717,"Ġnast":5718,"Ġnervous":5719,"ĠII":5720,"orial":5721,"isk":5722,"ises":5723,"isper":5724,"isible":5725,"Ġital":5726,"sever":5727,"search":5728,"three":5729,"thus":5730,"enominator":5731,"entical":5732,"Ġhar":5733,"tified":5734,"ayzan":5735,"Ġdoc":5736,"Ġdock":5737,"Ġlap":5738,"Ġlunch":5739,"Ġlives":5740,"Ġlying":5741,"Ġlany":5742,"Ġlined":5743,"igail":5744,"iggy":5745,"arles":5746,"arpen":5747,"Ġedges":5748,"Ġeffect":5749,"Ġegg":5750,"Ġelement":5751,"Ġeuro":5752,"Ġeye":5753,"Ġeleven":5754,"Ġbeat":5755,"Ġbean":5756,"Ġbead":5757,"acie":5758,"stop":5759,"omet":5760,"omach":5761,"Things":5762,"Thousandths":5763,"Thinking":5764,"alm":5765,"alking":5766,"alif":5767,"Ġinqu":5768,"Ġinner":5769,"Ġintern":5770,"Ġiniti":5771,"Ġ116":5772,"Ġ115":5773,"Ġrings":5774,"Ġrisk":5775,"edule":5776,"its":5777,"itor":5778,"itally":5779,"icle":5780,"iction":5781,"icking":5782,"icked":5783,"Ġangel":5784,"Ġancient":5785,"Ġanxious":5786,"quarter":5787,"Ġrequ":5788,"Ġreph":5789,"Ġrearr":5790,"Ġrename":5791,"Ġresearch":5792,"Ġareas":5793,"Ġsoft":5794,"Ġsocial":5795,"Ġjam":5796,"aser":5797,"Ġshr":5798,"Ġsharpen":5799,"Ġneck":5800,"Ġnegat":5801,"Ġstack":5802,"Ġstretch":5803,"Ġstomach":5804,"uma":5805,"plit":5806,"plies":5807,"plify":5808,"Ġforce":5809,"ader":5810,"ecra":5811,"ecil":5812,"ourage":5813,"Ġkick":5814,"Ġkilled":5815,"ooth":5816,"Ġabsent":5817,"irie":5818,"rop":5819,"Ġupright":5820,"ulative":5821,"arters":5822,"iment":5823,"Ġattr":5824,"kings":5825,"anted":5826,"antron":5827,"Ġ210":5828,"Ġ2Â²":5829,"Ġself":5830,"Ġthinner":5831,"Ġexist":5832,"Ġorang":5833,"Ġdong":5834,"Ġdie":5835,"Ġoutli":5836,"Ġoutput":5837,"Ġproced":5838,"Their":5839,"acts":5840,"Ġaspect":5841,"aren":5842,"Ġquarters":5843,"oseph":5844,"ures":5845,"Ġneeding":5846,"terpre":5847,"ackle":5848,"chase":5849,"ntonio":5850,"Ġxs":5851,"uss":5852,"usion":5853,"Ġplac":5854,"Ġplants":5855,"Ġplanted":5856,"Ġ428":5857,"Ġtrash":5858,"Ġtruth":5859,"urg":5860,"urch":5861,"urger":5862,"However":5863,"aina":5864,"ainted":5865,"Ġoverwh":5866,"irsten":5867,"oss":5868,"oses":5869,"osure":5870,"Ġ58":5871,"Ġ510":5872,"Doki":5873,"Ġfactorable":5874,"Ġchain":5875,"Ġchun":5876,"Ġchalk":5877,"Ġchew":5878,"Ġchips":5879,"ffin":5880,"ffee":5881,"Ġguard":5882,"essing":5883,"oles":5884,"olwo":5885,"unit":5886,"unner":5887,"unction":5888,"unity":5889,"Ġpaired":5890,"Ġnowhere":5891,"Ġdivisible":5892,"Ġthanks":5893,"Ġclick":5894,"Ġclues":5895,"Ġcloner":5896,"ache":5897,"aching":5898,"Ġcomic":5899,"Ġcompres":5900,"ĠAX":5901,"ĠAt":5902,"ĠAvery":5903,"ĠAva":5904,"ĠAutumn":5905,"ĠAdam":5906,"Ġours":5907,"Ġalthough":5908,"ators":5909,"Ġ109":5910,"Ġ62":5911,"Ġ65":5912,"Ġ610":5913,"Ġ677":5914,"Ġview":5915,"Ġvitally":5916,"Ġintuitive":5917,"Ġpersever":5918,"Ġpops":5919,"Ġconcl":5920,"atively":5921,"Ġtap":5922,"nders":5923,"102":5924,"105":5925,"Ġnoise":5926,"Isabelle":5927,"Isaac":5928,"Ġtakeaway":5929,"Ġeveryday":5930,"icken":5931,"pergirl":5932,"Ġmaths":5933,"Whenever":5934,"Ġunderline":5935,"Ġ83":5936,"Ġ800":5937,"Ġ810":5938,"Ġ882":5939,"ĠCarl":5940,"ĠCaleb":5941,"ĠCalif":5942,"ĠCecil":5943,"ĠBill":5944,"ĠBuc":5945,"ĠBritney":5946,"ĠBurger":5947,"ĠBolwo":5948,"Ġ74":5949,"Ġ720":5950,"Thankfully":5951,"Ġsixteen":5952,"Ġhadn":5953,"Ġgooder":5954,"Ġtext":5955,"Ġtenders":5956,"Ġ93":5957,"Ġ94":5958,"Ġroad":5959,"Ġgraphics":5960,"Ġforms":5961,"Ġformal":5962,"Short":5963,"Shoot":5964,"Shhh":5965,"oughly":5966,"Ġ126":5967,"aken":5968,"standing":5969,"Ġcoaster":5970,"Ġcoeffic":5971,"Ġcoffee":5972,"Ġloop":5973,"Ġmoves":5974,"âĢĿ":5975,"ĠJB":5976,"ĠJD":5977,"ĠJames":5978,"ĠJacob":5979,"ĠJaylen":5980,"ĠJimmy":5981,"Ġunderstands":5982,"1200":5983,"Ġunfin":5984,"Ġuncle":5985,"Ġunfactor":5986,"time":5987,"Ins":5988,"Increasing":5989,"Interpre":5990,"Angel":5991,"Ġoffer":5992,"Ġ204":5993,"Ġ206":5994,"Ġmodification":5995,"Ġdecision":5996,"Ġeights":5997,"ortunity":5998,"ĠMar":5999,"ĠMic":6000,"ĠMike":6001,"ĠMake":6002,"ĠMel":6003,"ĠMarch":6004,"ĠMacy":6005,"ategy":6006,"Ġreminder":6007,"Doesn":6008,"Ġdraws":6009,"Ġvalley":6010,"agles":6011,"Ġspread":6012,"Ġspaces":6013,"Ġspicy":6014,"open":6015,"Ġexpens":6016,"ĠYob":6017,"Ġposition":6018,"Ġpositions":6019,"Ġidentical":6020,"Ġsideways":6021,"Ġkeys":6022,"ished":6023,"ĠKe":6024,"ĠKat":6025,"ĠKing":6026,"ĠKate":6027,"ĠKyle":6028,"ĠKleenex":6029,"ĠKalahari":6030,"Ġ1800":6031,"Ġleftover":6032,"Stay":6033,"Stating":6034,"Aren":6035,"Ġpresent":6036,"Anywhere":6037,"Ġcouch":6038,"Ġcousin":6039,"Ġgrass":6040,"Ġgranol":6041,"Ġimmune":6042,"ĠRoddy":6043,"ĠRuss":6044,"Ġ160":6045,"ĠSince":6046,"ĠSchool":6047,"ĠSara":6048,"ĠSydney":6049,"ĠSylvia":6050,"ĠSRB":6051,"ĠSnack":6052,"ĠSuma":6053,"Ġmajor":6054,"Ġproduce":6055,"Ġproductive":6056,"Friday":6057,"Ġmodeling":6058,"izeth":6059,"Ġlists":6060,"Ġbasing":6061,"Ġcomponent":6062,"Ġcomposure":6063,"Ġcalculations":6064,"Ġcomment":6065,"Expon":6066,"Expand":6067,"Ġsits":6068,"Ġafterno":6069,"Ġrealizing":6070,"Somewhere":6071,"Ġhandle":6072,"Ġplugin":6073,"Ġverb":6074,"Ġacceptable":6075,"Ġsmooth":6076,"Choose":6077,"Chicken":6078,"oody":6079,"Ġscrib":6080,"Ġscary":6081,"Ġscared":6082,"Ġscantron":6083,"Ġrepresented":6084,"ĠGerm":6085,"ĠGreen":6086,"ĠGarner":6087,"ĠGreyson":6088,"206":6089,"Ġdiscover":6090,"Ġtriple":6091,"Ġsplitting":6092,"boards":6093,"word":6094,"Ġheights":6095,"ĠHigh":6096,"ĠHold":6097,"ĠHenly":6098,"Ġconfir":6099,"Ġconfuse":6100,"ĠEva":6101,"ĠEagle":6102,"ĠTa":6103,"ĠTob":6104,"ĠTatum":6105,"ĠTayzan":6106,"Ġbreakfast":6107,"Ġperfectly":6108,"Ġinflection":6109,"Ġ(âĪļ":6110,"Ġconversions":6111,"ording":6112,"riffin":6113,"Ġ147":6114,"Ġheadache":6115,"Ġapart":6116,"Ġapple":6117,"Ġsimplification":6118,"Ġsimplifies":6119,"Nearest":6120,"Ġbookmarks":6121,"Ġclosely":6122,"Ġ2400":6123,"Ġlessons":6124,"ĠDorsey":6125,"ĠDominic":6126,"Ġindeed":6127,"ĠPart":6128,"ĠPiggy":6129,"Ġskipped":6130,"Ġ171":6131,"Ġ176":6132,"Alisa":6133,"Perimeter":6134,"Percent":6135,"ĠLe":6136,"ĠLuc":6137,"ĠLond":6138,"ĠListen":6139,"ĠLeah":6140,"ĠLeg":6141,"Ġ256":6142,"Ġspeaking":6143,"Ġincrease":6144,"Ġincreases":6145,"Ġhigher":6146,"Ġhighest":6147,"Ġmarkdown":6148,"rowed":6149,"2000":6150,"Ġeng":6151,"Ġenergy":6152,"Ġenthus":6153,"Ġredo":6154,"Ġredraw":6155,"Ġreduce":6156,"Ġshaking":6157,"when":6158,"which":6159,"Ġyearly":6160,"Ġfewer":6161,"iginally":6162,"ashington":6163,"Ġ560":6164,"Ġerased":6165,"Ġpurchase":6166,"Ġtrickiest":6167,"Ġmostly":6168,"iana":6169,"Ġ191":6170,"Ġ193":6171,"Ġoriginally":6172,"Ġopens":6173,"Ġlocations":6174,"Orange":6175,"Originally":6176,"Ġdistinguish":6177,"Addy":6178,"Behind":6179,"Ġsurpris":6180,"Ġschools":6181,"Ġarm":6182,"Ġarrow":6183,"Ġodds":6184,"uced":6185,"Ġdisagreements":6186,"Greater":6187,"Play":6188,"Plot":6189,"ĠWill":6190,"Ġgloves":6191,"Ġleaders":6192,"Ġinterru":6193,"Ġintermedi":6194,"Ġholds":6195,"Ġneighbors":6196,"Ġsucks":6197,"Ġsnee":6198,"Ġ270":6199,"Ġfoiled":6200,"254":6201,"Ġconceptually":6202,"Ġcontent":6203,"Ġcontacts":6204,"180":6205,"Ġjuicy":6206,"roduct":6207,"Ġnoticing":6208,"Ġopportunity":6209,"Ġfolds":6210,"Ġfolder":6211,"Ġbegins":6212,"Explanation":6213,"eresting":6214,"Ġproved":6215,"Ġexpress":6216,"Ġexpressed":6217,"negative":6218,"Ġlabels":6219,"Rounding":6220,"Ġyelling":6221,"Ġlighter":6222,"ompose":6223,"Ġvisit":6224,"Ġdoub":6225,"Ġminds":6226,"Ġinterested":6227,"Ġcopies":6228,"Ġrepeats":6229,"Refresh":6230,"umeiya":6231,"Ġconstants":6232,"Ġchecks":6233,"Ġmoments":6234,"Shouldn":6235,"Shoulder":6236,"Ġpyramids":6237,"Ġaccident":6238,"Ġaccording":6239,"Ġcomputation":6240,"Ġgenre":6241,"Ġgenius":6242,"Ġmarkings":6243,"Ġrotate":6244,"ĠJoshua":6245,"Ġpractices":6246,"Ġpracticed":6247,"Ġpractically":6248,"Profit":6249,"Ġcapture":6250,"Keith":6251,"Kevin":6252,"ĠVictor":6253,"Ġwalks":6254,"Ġtransform":6255,"ailed":6256,"ĠBrady":6257,"Ġcourage":6258,"Ġregard":6259,"Ġjustified":6260,"Starting":6261,"Ġcopying":6262,"Ġentertain":6263,"Ġwheel":6264,"Finding":6265,"ĠZach":6266,"Ġmaximum":6267,"Squares":6268,"ĠOd":6269,"ĠOlivia":6270,"Ġmethods":6271,"568":6272,"ĠItal":6273,"Above":6274,"Joshua":6275,"yland":6276,"Ġcookie":6277,"Ġdoors":6278,"Ġargue":6279,"Kayley":6280,"Kaytlin":6281,"ĠAnnabellele":6282,"Cover":6283,"Coach":6284,"Ġreminding":6285,"Ġreminded":6286,"348":6287,"Divided":6288,"Ġruler":6289,"Ġplanning":6290,"Concise":6291,"Ġbelly":6292,"ĠReese":6293,"Ġbasics":6294,"ĠPAMPs":6295,"Ġinstruction":6296,"Ġdistributing":6297,"Ġdistribution":6298,"Ġinterpreter":6299,"Having":6300,"Ġdetermined":6301,"ÃĹ_=":6302,"Ġstruggled":6303,"Brady":6304,"Brooke":6305,"Ġbulb":6306,"Subtraction":6307,"Ġprepare":6308,"Ġconfusion":6309,"Least":6310,"Leave":6311,"Level":6312,"Ġborn":6313,"Deal":6314,"DeAngel":6315,"Drawing":6316,"Especially":6317,"fourth":6318,"fortunately":6319,"Ġsibling":6320,"ĠAbigail":6321,"Ġparabolas":6322,"Ġgrows":6323,"Ġgrowing":6324,"Ġimprove":6325,"Ġtranslations":6326,"Ġtranslating":6327,"Ġaccurately":6328,"Strategy":6329,"balls":6330,"Ġ384":6331,"Ġchosen":6332,"Ġsaved":6333,"Ġperformance":6334,"Ġflipping":6335,"Ġflippy":6336,"Ġseparated":6337,"Ġseparates":6338,"Ġmusical":6339,"ĠCole":6340,"ĠSupergirl":6341,"ristan":6342,"Ġclarifying":6343,"Ġvolunteers":6344,"Adam":6345,"Ġserve":6346,"Ġserves":6347,"Ġserious":6348,"Ġsquigg":6349,"Ġliking":6350,"Ġpopcorn":6351,"Ġadvanced":6352,"Grace":6353,"grader":6354,"Fifth":6355,"Graphing":6356,"Into":6357,"Interesting":6358,"clock":6359,"going":6360,"Ġaudience":6361,"Ġcreated":6362,"Ġdogs":6363,"Ġdoggone":6364,"Ġrereading":6365,"Ġpolyhedron":6366,"Ġpolygon":6367,"ĠBenji":6368,"Ġroller":6369,"Answers":6370,"Ġcounterclockwise":6371,"Ġscoring":6372,"Ġrefresher":6373,"Ġappears":6374,"Ġemphasizing":6375,"Ġresponses":6376,"Phone":6377,"Ġcried":6378,"Ġcrunch":6379,"Ġsweet":6380,"Ġcups":6381,"Ġlaughing":6382,"Ġinputting":6383,"Ġroutes":6384,"Ġ294":6385,"Ġexperiment":6386,"ĠCassidy":6387,"ĠCassandra":6388,"Ġelimination":6389,"Ġeliminate":6390,"Ġrecommended":6391,"ĠDeath":6392,"ĠDevin":6393,"ĠDanny":6394,"Ġworksheets":6395,"Ġcommunic":6396,"Annabel":6397,"Annabella":6398,"Ġdifficulty":6399,"Ġpockets":6400,"Acute":6401,"Color":6402,"Cubic":6403,"Easy":6404,"Joey":6405,"Modify":6406,"Outstanding":6407,"Polyhedron":6408,"Respond":6409,"Rays":6410,"Reciprocal":6411,"Simplify":6412,"Total":6413,"Totally":6414,"hanical":6415,"itives":6416,"ĠShay":6417,"Ġwondering":6418,"Ġdelay":6419,"Ġdelta":6420,"Ġgift":6421,"Ġgifts":6422,"Ġpolite":6423,"ornia":6424,"Ġringing":6425,"Ġcheating":6426,"Ġcheaper":6427,"Ġpartnership":6428,"Ġpartnerships":6429,"Ġalternate":6430,"Ġalternative":6431,"Ġintroduced":6432,"Ġconsidering":6433,"Ġdisappear":6434,"Ġimagine":6435,"Ġvertices":6436,"Ġvertically":6437,"ĠGracie":6438,"Ġdescribing":6439,"Ġdistracting":6440,"Ġdistracted":6441,"Kellan":6442,"Ġprediction":6443,"ĠNaveah":6444,"Ġdemonstrate":6445,"Ġshovel":6446,"Decompose":6447,"Heads":6448,"Justify":6449,"Local":6450,"Opps":6451,"Renee":6452,"Return":6453,"Typically":6454,"Usually":6455,"everything":6456,"multiply":6457,"Ġencourage":6458,"Ġtechnology":6459,"Ġsassy":6460,"Ġbanana":6461,"Ġpuzzle":6462,"Ġnonsense":6463,"Ġlogs":6464,"Ġeffective":6465,"Thirteen":6466,"Ġrays":6467,"Ġanimals":6468,"Ġreplacing":6469,"Ġfrustrated":6470,"Ġsequence":6471,"Ġprogression":6472,"Ġchickens":6473,"ĠBeth":6474,"Ġconductor":6475,"Ġcollaboration":6476,"ĠJoey":6477,"Ġsports":6478,"Ġsudden":6479,"Ġdevil":6480,"Ġdeveloping":6481,"Ġgrammar":6482,"Ġacquainted":6483,"ĠChapman":6484,"Ġdisconnected":6485,"Quietly":6486,"Ġresources":6487,"Ġrespectful":6488,"Ġswivels":6489,"ĠAnnabella":6490,"Ġrelationships":6491,"Conjecture":6492,"Considering":6493,"Ġconjugate":6494,"Ġpopulation":6495,"Ġcharacter":6496,"Ġterritorial":6497,"Ġmathematicians":6498,"Ġevaluate":6499,"Replicate":6500,"Audrey":6501,"Blue":6502,"Bills":6503,"Elaina":6504,"Horizontal":6505,"Honestly":6506,"Largest":6507,"Memor":6508,"Pardon":6509,"Press":6510,"Pyramid":6511,"Super":6512,"Switch":6513,"Surface":6514,"Taxes":6515,"Taylor":6516,"block":6517,"ique":6518,"laughs":6519,"serve":6520,"Ġvenom":6521,"ĠExploration":6522,"Ġtummy":6523,"reams":6524,"Ġwisely":6525,"Ġschedule":6526,"Ġsizes":6527,"Ġtomato":6528,"Ġgained":6529,"Ġhungry":6530,"Ġbacon":6531,"Ġmechanical":6532,"Ġmentioned":6533,"Ġfolks":6534,"Ġfundraising":6535,"Ġpentagon":6536,"Ġprairie":6537,"Ġpeaks":6538,"Ġcumulative":6539,"Ġcelebrate":6540,"length":6541,"Ġnarrowed":6542,"Ġnasty":6543,"Ġlanyard":6544,"Ġeggs":6545,"Ġbeads":6546,"ometry":6547,"Ġinternet":6548,"Ġinitially":6549,"Ġrephrase":6550,"Ġrearrange":6551,"Ġsoftware":6552,"Ġneckl":6553,"Ġnegatives":6554,"Ġforcefully":6555,"ecraft":6556,"Ġkickball":6557,"Ġoranges":6558,"Ġoutliers":6559,"Ġprocedures":6560,"Ġoverwhel":6561,"Ġchewing":6562,"Ġpopsicle":6563,"Ġconclusion":6564,"ĠCalifornia":6565,"ĠCecilia":6566,"ĠBucks":6567,"Ġcoefficients":6568,"Ġunfinished":6569,"Interpret":6570,"Ġexpensive":6571,"ĠYoburg":6572,"Ġgranola":6573,"Exponent":6574,"Expanded":6575,"Ġafternoon":6576,"Ġscribes":6577,"ĠGreenfield":6578,"ĠTobias":6579,"ĠPiggyBank":6580,"ĠLucien":6581,"ĠLondon":6582,"ĠLegacy":6583,"Ġenthusias":6584,"Ġpurchased":6585,"Ġinterrupt":6586,"Ġintermediate":6587,"Ġtransformations":6588,"Ġentertainment":6589,"DeAngelo":6590,"Heck":6591,"co":6592,"ha":6593,"Ġjacket":6594,"Ġforth":6595,"Ġequaled":6596,"change":6597,"blems":6598,"essment":6599,"Ġpile":6600,"Ġimpres":6601,"Ġquicker":6602,"ĠChris":6603,"Christ":6604,"167":6605,"Ġspecify":6606,"Ġcuts":6607,"Being":6608,"Ġformulas":6609,"lena":6610,"Ask":6611,"Ġassessment":6612,"Ġprisms":6613,"Problems":6614,"Ġidentifying":6615,"Haven":6616,"ĠKaylie":6617,"Ġsmartboard":6618,"Ġassigned":6619,"Ġslowly":6620,"Ġcommunicate":6621,"ĠNavea":6622,"Katie":6623,"Ġsavings":6624,"Study":6625,"Christine":6626,")|||":6627,"=?|||":6628,"ycle":6629,"|||$":6630,"|||[":6631,"Ġnormal":6632,"Ġshut":6633,"Ġaside":6634,"--?":6635,"ĠRach":6636,"Ġrecycle":6637,".\"|||[":6638,"Ġlocate":6639,"ĠBrooke":6640,"Learning":6641,"Arina":6642,"Ġmotivational":6643,"Ġshovels":6644,"Ġgrandma":6645,"Ġscenario":6646,"Ġindividual":6647,"âĢĿ|||":6648,"Ġpause":6649,"anti":6650,"Ġquanti":6651,"ĠEm":6652,"Ġreached":6653,"Ġquantity":6654,",-":6655,"bra":6656,"count":6657,"|||.|||":6658,".|||?":6659,"isney":6660,"gebra":6661,"Ġalgebra":6662,"ĠDisney":6663,"Ġdriveway":6664,"Ġcovering":6665,"Ġgrading":6666,"Scribe":6667,"nine":6668,"Ġexcellent":6669,"rap":6670,"Ġ49":6671,"ĠSage":6672,"Ġkits":6673,"folded":6674,"Ġblindfolded":6675,"inted":6676,"Ġprinted":6677,"entile":6678,"Calcul":6679,"Ġpercentile":6680,"'.|||":6681,"Tom":6682,"orrow":6683,"Ġepic":6684,"ĠMister":6685,"Ġinfinitely":6686,"Ġreturn":6687,"Tomorrow":6688,"%.":6689,")(":6690,")<":6691,")>":6692,")-(":6693,",+":6694,"-,":6695,"/âĪļ":6696,"050":6697,"045":6698,"112":6699,"136":6700,"230":6701,"213":6702,"310":6703,"3000":6704,"3Â³":6705,"345":6706,"410":6707,"59":6708,"512":6709,"570":6710,"62":6711,"63":6712,"67":6713,"640":6714,"693":6715,"73":6716,"734":6717,"729":6718,"7900":6719,"850":6720,"815":6721,"814":6722,"813":6723,"8300":6724,"899":6725,"882":6726,"95":6727,"9Â²":6728,"AE":6729,"AS":6730,"Ap":6731,"Aw":6732,"Aver":6733,"Aly":6734,"Aug":6735,"Around":6736,"Anderson":6737,"Alex":6738,"Academic":6739,"Autumn":6740,"Antonio":6741,"BX":6742,"Ben":6743,"Bro":6744,"Bel":6745,"Bil":6746,"Beck":6747,"Bird":6748,"Bert":6749,"Bump":6750,"Baby":6751,"Break":6752,"Britney":6753,"Cou":6754,"Cat":6755,"Cor":6756,"Cause":6757,"Cook":6758,"Cate":6759,"Cop":6760,"Cont":6761,"Carter":6762,"Cup":6763,"Cond":6764,"Certain":6765,"Cara":6766,"CAE":6767,"Dr":6768,"Ding":6769,"Des":6770,"Day":6771,"Dere":6772,"Det":6773,"Dad":6774,"Dang":6775,"Done":6776,"Dear":6777,"Dependent":6778,"Depends":6779,"Dominic":6780,"Denominator":6781,"Drop":6782,"DAS":6783,"EA":6784,"EM":6785,"EO":6786,"En":6787,"End":6788,"Est":6789,"Ext":6790,"Elliptical":6791,"Els":6792,"Fo":6793,"Fun":6794,"Foc":6795,"Face":6796,"Full":6797,"Fold":6798,"Fred":6799,"Fair":6800,"Fuck":6801,"Fatu":6802,"GI":6803,"Gre":6804,"Green":6805,"Girl":6806,"Gwen":6807,"Garner":6808,"Greyson":6809,"Gerry":6810,"Gunner":6811,"Griffin":6812,"Hou":6813,"Hen":6814,"Hot":6815,"Home":6816,"Hum":6817,"Hug":6818,"Hundred":6819,"Harl":6820,"Hud":6821,"Honey":6822,"Harlie":6823,"Halle":6824,"Hellen":6825,"Halley":6826,"Holly":6827,"Hanley":6828,"IP":6829,"Ind":6830,"Iif":6831,"Ijust":6832,"Je":6833,"Jere":6834,"Jas":6835,"Jam":6836,"Jul":6837,"Jake":6838,"Jud":6839,"Jumps":6840,"Joy":6841,"Jaylen":6842,"Jimmy":6843,"Joseph":6844,"Jumeiya":6845,"Ket":6846,"Kir":6847,"Kate":6848,"Kath":6849,"Kids":6850,"Kane":6851,"Kara":6852,"Kalahari":6853,"Karen":6854,"Kirsten":6855,"LO":6856,"Lay":6857,"List":6858,"Long":6859,"Label":6860,"Love":6861,"Lots":6862,"Lib":6863,"Lincoln":6864,"Lizeth":6865,"MA":6866,"Mat":6867,"Man":6868,"Mor":6869,"Mom":6870,"Med":6871,"Mad":6872,"Must":6873,"Mus":6874,"Main":6875,"Made":6876,"Making":6877,"Mental":6878,"Maden":6879,"March":6880,"Magic":6881,"Messing":6882,"Nel":6883,"None":6884,"New":6885,"Numb":6886,"Nomial":6887,"Note":6888,"Nav":6889,"Nervous":6890,"Normal":6891,"OP":6892,"Odd":6893,"Oily":6894,"Pause":6895,"Pure":6896,"Pur":6897,"Pink":6898,"Park":6899,"Pont":6900,"Puzz":6901,"Pounds":6902,"Poor":6903,"Push":6904,"Portion":6905,"Product":6906,"POP":6907,"Ro":6908,"Ry":6909,"Rem":6910,"Rel":6911,"Rew":6912,"Ruse":6913,"Rud":6914,"Railey":6915,"Ratio":6916,"Roddy":6917,"Ross":6918,"Ryland":6919,"Ser":6920,"Sow":6921,"Ske":6922,"Sed":6923,"Squ":6924,"Sad":6925,"Sort":6926,"Sil":6927,"Swe":6928,"Spec":6929,"Snow":6930,"Sketch":6931,"Slow":6932,"Sym":6933,"Sylvia":6934,"Spa":6935,"Split":6936,"Tr":6937,"Too":6938,"Tur":6939,"Tied":6940,"Tap":6941,"Tray":6942,"Tasha":6943,"Tthen":6944,"Tatu":6945,"Tatum":6946,"Topic":6947,"Tilt":6948,"Terry":6949,"Talking":6950,"Tackle":6951,"Tiana":6952,"Tristan":6953,"VP":6954,"Ver":6955,"Vari":6956,"Wing":6957,"Wal":6958,"Wed":6959,"Woo":6960,"Width":6961,"Washington":6962,"Wrap":6963,"XQ":6964,"Xs":6965,"Yul":6966,"^-":6967,"ae":6968,"ao":6969,"ax":6970,"aid":6971,"aut":6972,"aim":6973,"ape":6974,"aak":6975,"aley":6976,"after":6977,"aile":6978,"aiah":6979,"big":6980,"bst":6981,"bed":6982,"bet":6983,"bble":6984,"bly":6985,"bone":6986,"bies":6987,"bviously":6988,"bling":6989,"becca":6990,"bining":6991,"bbie":6992,"cr":6993,"chat":6994,"car":6995,"cal":6996,"cot":6997,"call":6998,"care":6999,"col":7000,"ctive":7001,"cia":7002,"cks":7003,"cision":7004,"cert":7005,"comes":7006,"cinating":7007,"da":7008,"de":7009,"di":7010,"dis":7011,"dit":7012,"dep":7013,"deg":7014,"ether":7015,"eus":7016,"eel":7017,"even":7018,"eers":7019,"earing":7020,"elyn":7021,"either":7022,"eese":7023,"eued":7024,"eighths":7025,"eometry":7026,"fl":7027,"fly":7028,"fra":7029,"find":7030,"first":7031,"fia":7032,"formation":7033,"favor":7034,"fire":7035,"fives":7036,"fend":7037,"function":7038,"gust":7039,"gation":7040,"gook":7041,"gus":7042,"gun":7043,"gie":7044,"gers":7045,"good":7046,"green":7047,"gment":7048,"giving":7049,"goes":7050,"gail":7051,"glin":7052,"gument":7053,"garden":7054,"hi":7055,"has":7056,"hoo":7057,"hard":7058,"have":7059,"hold":7060,"hend":7061,"having":7062,"haps":7063,"hanced":7064,"iot":7065,"iec":7066,"iard":7067,"ipe":7068,"iance":7069,"ihan":7070,"joy":7071,"lo":7072,"lar":7073,"lim":7074,"lant":7075,"lation":7076,"land":7077,"liz":7078,"lest":7079,"long":7080,"ltim":7081,"lass":7082,"looking":7083,"lict":7084,"library":7085,"loses":7086,"mon":7087,"mall":7088,"makes":7089,"mond":7090,"making":7091,"miss":7092,"maz":7093,"mean":7094,"miah":7095,"mester":7096,"mbly":7097,"ns":7098,"nor":7099,"ned":7100,"ngh":7101,"nel":7102,"nies":7103,"nger":7104,"never":7105,"nment":7106,"nider":7107,"oan":7108,"oth":7109,"oid":7110,"oke":7111,"oad":7112,"oking":7113,"overy":7114,"oked":7115,"oating":7116,"olyhedron":7117,"por":7118,"pot":7119,"pause":7120,"page":7121,"power":7122,"portant":7123,"pered":7124,"ptions":7125,"ptical":7126,"paper":7127,"pplies":7128,"product":7129,"piec":7130,"polyhedron":7131,"rw":7132,"rat":7133,"rig":7134,"rid":7135,"rac":7136,"rom":7137,"rie":7138,"rick":7139,"rible":7140,"rish":7141,"ritten":7142,"ratch":7143,"rational":7144,"range":7145,"rtie":7146,"ructor":7147,"sy":7148,"sor":7149,"say":7150,"sid":7151,"sit":7152,"sive":7153,"sure":7154,"same":7155,"sine":7156,"sist":7157,"sorry":7158,"sity":7159,"ssing":7160,"school":7161,"sample":7162,"sci":7163,"spective":7164,"split":7165,"scar":7166,"small":7167,"tp":7168,"tan":7169,"too":7170,"tain":7171,"tun":7172,"test":7173,"try":7174,"tangent":7175,"table":7176,"tuce":7177,"talking":7178,"uine":7179,"uff":7180,"uenc":7181,"uces":7182,"uition":7183,"uddy":7184,"uPont":7185,"van":7186,"vor":7187,"vision":7188,"view":7189,"vinc":7190,"varia":7191,"wl":7192,"were":7193,"wed":7194,"was":7195,"well":7196,"walk":7197,"written":7198,"xit":7199,"xim":7200,"xtic":7201,"xagon":7202,"xax":7203,"your":7204,"ybe":7205,"yond":7206,"yatt":7207,"ypot":7208,"zes":7209,"zen":7210,"zed":7211,"zius":7212,"Ġ)":7213,"Ġ:":7214,"ĠU":7215,"Ġve":7216,"ĠThey":7217,"ĠOne":7218,"ĠHe":7219,"ĠDid":7220,"ĠWhy":7221,"ĠTwo":7222,"ĠLook":7223,"ĠYour":7224,"ĠShow":7225,"ĠDon":7226,"ĠPlease":7227,"ĠThese":7228,"ĠQu":7229,"ĠThose":7230,"ĠWhich":7231,"ĠSoph":7232,"ĠVery":7233,"ĠThanks":7234,"Ġ,\"":7235,"ĠÂ³":7236,"ĠOnce":7237,"ĠOur":7238,"ĠOf":7239,"ĠNext":7240,"ĠExcellent":7241,"ĠUn":7242,"Ġought":7243,"ĠUnit":7244,"ĠUs":7245,"ĠLooks":7246,"ŀ,":7247,"ŀ.":7248,"Ġtin":7249,"Ġtle":7250,"Ġtent":7251,"Ġtrou":7252,"Ġtun":7253,"Ġtick":7254,"Ġtense":7255,"Ġtwe":7256,"Ġturf":7257,"Ġtackle":7258,"Ġthy":7259,"Ġthor":7260,"Ġthro":7261,"Ġthousand":7262,"outher":7263,"ouths":7264,"Ġast":7265,"Ġake":7266,"Ġach":7267,"Ġaff":7268,"Ġactions":7269,"Ġaunt":7270,"Ġauth":7271,"Ġauction":7272,"Ġaha":7273,"Ġafra":7274,"inse":7275,"inion":7276,"inct":7277,"iness":7278,"inity":7279,"infin":7280,"inary":7281,"infor":7282,"inuing":7283,"inters":7284,"inecraft":7285,"inned":7286,"rest":7287,"really":7288,"rements":7289,"reaming":7290,"relation":7291,"revor":7292,"rexit":7293,"Ġwing":7294,"Ġwid":7295,"Ġwase":7296,"Ġwaking":7297,"Ġwins":7298,"Ġwatches":7299,"Ġwrest":7300,"ature":7301,"atur":7302,"atty":7303,"attie":7304,"atune":7305,"atios":7306,"atballs":7307,"atrick":7308,"Ġsan":7309,"Ġske":7310,"Ġsour":7311,"Ġsake":7312,"Ġsus":7313,"Ġsun":7314,"Ġsong":7315,"Ġsink":7316,"Ġsines":7317,"Ġsugg":7318,"Ġsens":7319,"Ġsung":7320,"Ġtheboards":7321,"Ġyay":7322,"Ġyounger":7323,"Ġyourexit":7324,"Ġoce":7325,"Ġoily":7326,"Ġowl":7327,"Ġiron":7328,"Ġton":7329,"Ġtoss":7330,"Ġtoken":7331,"Ġtostop":7332,"erically":7333,"erfect":7334,"erges":7335,"erced":7336,"ercise":7337,"inging":7338,"ingling":7339,"Ġdig":7340,"Ġdut":7341,"Ġdir":7342,"Ġdare":7343,"Ġdine":7344,"Ġdate":7345,"Ġdess":7346,"Ġdead":7347,"Ġdumb":7348,"Ġdri":7349,"Ġdepend":7350,"Ġdimension":7351,"Ġdump":7352,"Ġduck":7353,"Ġdanc":7354,"Ġdreams":7355,"Ġdwell":7356,"Ġdreaming":7357,"Ġgas":7358,"Ġgum":7359,"Ġgir":7360,"Ġgau":7361,"Ġgest":7362,"Ġgath":7363,"Ġgentlem":7364,"Ġgears":7365,"Ġgeometry":7366,"Ġhi":7367,"Ġho":7368,"Ġhog":7369,"Ġhole":7370,"Ġhonest":7371,"Ġhypot":7372,"nding":7373,"ndle":7374,"ndars":7375,"Ġbs":7376,"Ġbid":7377,"Ġbal":7378,"Ġbum":7379,"Ġbike":7380,"Ġbod":7381,"Ġbus":7382,"Ġbite":7383,"Ġbody":7384,"Ġbil":7385,"Ġbored":7386,"Ġbinder":7387,"Ġbiol":7388,"Ġbale":7389,"Ġbump":7390,"Ġmic":7391,"Ġmam":7392,"Ġmix":7393,"Ġmast":7394,"Ġmong":7395,"Ġmia":7396,"Ġmask":7397,"Ġmuff":7398,"Ġmouths":7399,"Ġmingling":7400,"esus":7401,"estim":7402,"especially":7403,"esophagus":7404,"Ġfal":7405,"Ġfight":7406,"Ġfut":7407,"Ġfas":7408,"Ġfro":7409,"Ġfly":7410,"Ġfain":7411,"Ġfade":7412,"Ġfier":7413,"Ġfence":7414,"Ġfaul":7415,"Ġfilt":7416,"Ġpan":7417,"Ġpet":7418,"Ġpour":7419,"Ġpam":7420,"Ġpure":7421,"Ġpine":7422,"Ġpace":7423,"Ġpath":7424,"Ġpoof":7425,"Ġpants":7426,"Ġpeers":7427,"Ġpsy":7428,"Ġpinned":7429,"Ġchat":7430,"Ġcart":7431,"Ġcod":7432,"Ġcake":7433,"Ġcem":7434,"Ġcab":7435,"Ġcast":7436,"Ġcred":7437,"Ġcrow":7438,"Ġceter":7439,"Ġcash":7440,"Ġcale":7441,"Ġcabby":7442,"Ġcooking":7443,"Ġcauti":7444,"Ġcaps":7445,"Ġcatches":7446,"Ġcrop":7447,"only":7448,"onally":7449,"onometry":7450,"onnor":7451,"aning":7452,"anas":7453,"antic":7454,"another":7455,"anish":7456,"ances":7457,"antha":7458,"lear":7459,"lege":7460,"level":7461,"lective":7462,"leaning":7463,"Ġandput":7464,"Ġnod":7465,"Ġnug":7466,"Ġnap":7467,"Ġnuc":7468,"Ġnail":7469,"Ġnaked":7470,"Ġnaps":7471,"Ġnarr":7472,"Ġnatur":7473,"ĠIi":7474,"ĠIrw":7475,"Ġgover":7476,"Ġgobble":7477,"owlo":7478,"ora":7479,"ors":7480,"oring":7481,"orth":7482,"orical":7483,"orna":7484,"oratively":7485,"isy":7486,"iscern":7487,"ispered":7488,"Ġiteration":7489,"sembly":7490,"through":7491,"thew":7492,"thumb":7493,"thumbs":7494,"Ġisos":7495,"enry":7496,"enise":7497,"enuse":7498,"entions":7499,"eniss":7500,"eneration":7501,"tire":7502,"tition":7503,"tired":7504,"tigation":7505,"aying":7506,"aypack":7507,"Ġoften":7508,"Ġdozen":7509,"Ġlam":7510,"Ġlose":7511,"Ġlack":7512,"Ġlame":7513,"Ġlone":7514,"Ġlab":7515,"Ġliz":7516,"Ġlied":7517,"Ġlink":7518,"Ġlock":7519,"Ġlord":7520,"Ġlapt":7521,"Ġlady":7522,"Ġlather":7523,"Ġlifted":7524,"Ġlosing":7525,"Ġlaw":7526,"Ġlaser":7527,"Ġloss":7528,"Ġlaid":7529,"igy":7530,"igator":7531,"arim":7532,"arant":7533,"artic":7534,"arah":7535,"arina":7536,"argument":7537,"Ġweb":7538,"Ġweak":7539,"Ġet":7540,"Ġehat":7541,"Ġeating":7542,"Ġelev":7543,"Ġego":7544,"Ġeagles":7545,"Ġedit":7546,"Ġbed":7547,"Ġbeats":7548,"Ġbeaut":7549,"Ġbegun":7550,"Ġbeyond":7551,"Ġbending":7552,"iders":7553,"idger":7554,"idence":7555,"idually":7556,"aco":7557,"acked":7558,"acious":7559,"acceptable":7560,"accur":7561,"sting":7562,"sten":7563,"stock":7564,"stretch":7565,"oming":7566,"omed":7567,"ompl":7568,"ombst":7569,"Than":7570,"Though":7571,"Thursday":7572,"Ġthisis":7573,"als":7574,"aling":7575,"ales":7576,"alist":7577,"Ġinves":7578,"Ġinverse":7579,"Ġinscribe":7580,"Ġinaccur":7581,"Ġran":7582,"Ġram":7583,"Ġrod":7584,"Ġrose":7585,"Ġration":7586,"Ġrang":7587,"Ġrich":7588,"Ġroc":7589,"Ġrug":7590,"Ġriddle":7591,"Ġrating":7592,"Ġrib":7593,"Ġraces":7594,"Ġrush":7595,"Ġracing":7596,"Ġroles":7597,"Ġroughly":7598,"Ġrinse":7599,"Ġratios":7600,"Ġupl":7601,"Ġultim":7602,"key":7603,"keep":7604,"ldrid":7605,"Ġwhatso":7606,"Ġwhatty":7607,"Ġyourgreen":7608,"Ġyourhard":7609,"oulder":7610,"itation":7611,"itator":7612,"iters":7613,"Ġwhoo":7614,"Ġwhisper":7615,"Ġwhaak":7616,"Ġwhispered":7617,"etti":7618,"etles":7619,"etings":7620,"otation":7621,"otape":7622,"iculti":7623,"icates":7624,"icio":7625,"icized":7626,"icinity":7627,"Ġanno":7628,"quid":7629,"quiz":7630,"quick":7631,"quadratic":7632,"Ġwife":7633,"Ġreport":7634,"Ġreinfor":7635,"Ġretired":7636,"Ġrights":7637,"Ġsoak":7638,"Ġjar":7639,"Ġjot":7640,"Ġjack":7641,"Ġjell":7642,"Ġjugg":7643,"asp":7644,"asy":7645,"asure":7646,"astic":7647,"omebody":7648,"Whats":7649,"Ġshh":7650,"Ġshame":7651,"Ġshif":7652,"Ġshabby":7653,"Ġshoot":7654,"Ġshifted":7655,"Ġshhh":7656,"versions":7657,"Ġsting":7658,"Ġstum":7659,"Ġstake":7660,"Ġstation":7661,"Ġstem":7662,"Ġstumb":7663,"Ġstaring":7664,"Ġstated":7665,"Ġstings":7666,"Ġstock":7667,"Ġstems":7668,"Ġstats":7669,"Ġstreams":7670,"Ġstacked":7671,"uments":7672,"pling":7673,"plus":7674,"pline":7675,"plain":7676,"place":7677,"plans":7678,"plane":7679,"plicates":7680,"ading":7681,"adie":7682,"adateg":7683,"adition":7684,"usten":7685,"ustomed":7686,"ece":7687,"ech":7688,"ecia":7689,"ections":7690,"ouri":7691,"ouraging":7692,"Ġkill":7693,"Ġkitch":7694,"Ġkleenex":7695,"ooked":7696,"Ġmeerc":7697,"kayla":7698,"amine":7699,"amatic":7700,"ameter":7701,"iry":7702,"irts":7703,"roll":7704,"Ġupon":7705,"Ġupper":7706,"Ġupdate":7707,"Ġuptp":7708,"ulum":7709,"ulate":7710,"ults":7711,"imer":7712,"imary":7713,"Ġknitting":7714,"Ġknob":7715,"Ġkneel":7716,"Ġnoted":7717,"Ġfrigg":7718,"Ġnumbered":7719,"Ġ23":7720,"Ġ2100":7721,"Ġ236":7722,"Ġhowever":7723,"Ġlikeone":7724,"cely":7725,"celes":7726,"cella":7727,"ceptions":7728,"bled":7729,"Ġsegment":7730,"Ġsemester":7731,"Ġsextic":7732,"Ġselective":7733,"Ġexception":7734,"Ġexerc":7735,"Ġexchange":7736,"Ġexercise":7737,"Ġ37":7738,"Ġ3Â²":7739,"Ġ320":7740,"Ġ3Â³":7741,"Ġ3300":7742,"Ġdonate":7743,"Ġdialed":7744,"Ġdialing":7745,"Ġdiameter":7746,"Ġouter":7747,"Ġoutcome":7748,"Ġoutnumber":7749,"Ġoutcomes":7750,"Ġproces":7751,"Ġprofound":7752,"Ġproject":7753,"Ġsomewhat":7754,"Ġsomeplace":7755,"thers":7756,"thering":7757,"Ġworn":7758,"ently":7759,"entarily":7760,"Theore":7761,"acted":7762,"Ġasset":7763,"Ġassembly":7764,"Ġbecame":7765,"Ġbecoming":7766,"005":7767,"009":7768,"arene":7769,"arella":7770,"Ġquad":7771,"Ġquits":7772,"Ġqueued":7773,"Ġquartic":7774,"Ġquotation":7775,"Ġlemon":7776,"Ġlengh":7777,"ooklyn":7778,"swise":7779,"raint":7780,"Ġheld":7781,"Ġheart":7782,"Ġheel":7783,"Ġheaven":7784,"Ġhexagon":7785,"Ally":7786,"Allison":7787,"Whose":7788,"Whee":7789,"Wholes":7790,"Whether":7791,"--\"":7792,"Ġtiming":7793,"cture":7794,"term":7795,"Ġseeof":7796,"chart":7797,"cholog":7798,"chnider":7799,"Ġthinkhaving":7800,"Ġalligator":7801,"ores":7802,"please":7803,"Ġmultiplies":7804,"rounds":7805,"ellow":7806,"Ġxy":7807,"actions":7808,"usive":7809,"usual":7810,"Ġplans":7811,"Ġplatune":7812,"Ġplastic":7813,"Ġwriters":7814,"Ġ41":7815,"Ġ47":7816,"Ġ4Â²":7817,"Ġ440":7818,"Ġ4Â³":7819,"Ġtray":7820,"Ġtrace":7821,"Ġtrade":7822,"Ġtrial":7823,"Ġtricking":7824,"Ġtradition":7825,"urance":7826,"urora":7827,"Ġfractional":7828,"ateboard":7829,"Ġoverhe":7830,"Ġoverpower":7831,"Ġlookup":7832,"Sofia":7833,"Ġuseful":7834,"Ġuseless":7835,"osest":7836,"osua":7837,"Ġthemes":7838,"Ġ520":7839,"Ġ540":7840,"Ġ5Â³":7841,"Ġ552":7842,"Ġ590":7843,"Dog":7844,"Dogg":7845,"epen":7846,"Ġchit":7847,"Ġchase":7848,"Ġchug":7849,"Ġchurch":7850,"Ġchao":7851,"Ġchoking":7852,"Ġguide":7853,"Ġguest":7854,"Ġguarant":7855,"ghetti":7856,"Ġbold":7857,"Ġbothering":7858,"olation":7859,"olton":7860,"oloid":7861,"uncan":7862,"uncture":7863,"Ġpale":7864,"ners":7865,"iefly":7866,"Ġdiving":7867,"ement":7868,"Ġmature":7869,"phed":7870,"phones":7871,"phole":7872,"intance":7873,"estions":7874,"Ġcloud":7875,"Ġclipped":7876,"Ġclaw":7877,"Ġclicking":7878,"Ġclicked":7879,"Ġclique":7880,"Ġcloth":7881,"Ġcompre":7882,"ĠAP":7883,"ĠAfter":7884,"ĠAsh":7885,"ĠAri":7886,"ĠAmy":7887,"ĠAlin":7888,"ĠAunt":7889,"ĠAthen":7890,"ĠAshlyn":7891,"ĠAntonio":7892,"ĠAmaz":7893,"ĠArtie":7894,"ĠAldrid":7895,"ĠAusten":7896,"ĠAurora":7897,"ela":7898,"elf":7899,"eling":7900,"elve":7901,"Ġourselves":7902,"anging":7903,"Ġexplored":7904,"Ġequaling":7905,"Ġequality":7906,"Ġzack":7907,"Ġquestioning":7908,"Ġbacktr":7909,"Ġbackward":7910,"Ġalive":7911,"Ġalright":7912,"Ġaloud":7913,"Ġalarm":7914,"Ġmania":7915,"Ġmanip":7916,"Ġmanage":7917,"Ġ101":7918,"Ġ104":7919,"Ġ106":7920,"Ġ107":7921,"Ġ1024":7922,"Ġ1084":7923,"Ġ61":7924,"Ġ611":7925,"Ġstarter":7926,"venient":7927,"Ġvie":7928,"Ġvag":7929,"Ġvision":7930,"Ġvocab":7931,"Ġvicinity":7932,"Ġdiffer":7933,"Ġdifficulti":7934,"ubby":7935,"Ġsomethings":7936,"about":7937,"abell":7938,"ability":7939,"ablish":7940,"Ġintro":7941,"Ġintense":7942,"Ġintellig":7943,"Ġintuition":7944,"Ġintentions":7945,"ppose":7946,"ichard":7947,"Ġperman":7948,"Ġpermis":7949,"Ġpersist":7950,"Ġpotions":7951,"Ġpointers":7952,"Ġconcent":7953,"Ġconcise":7954,"Ġconcern":7955,"Ġconserve":7956,"Ġconcert":7957,"Ġconsid":7958,"Ġconvinc":7959,"Ġconvenient":7960,"izy":7961,"izonal":7962,"pts":7963,"Therefore":7964,"ific":7965,"ifier":7966,"lfrie":7967,"Ġtapping":7968,"101":7969,"108":7970,"1024":7971,"10200":7972,"Ġnoon":7973,"Ġnoisy":7974,"Isolated":7975,"Isolation":7976,"Isabell":7977,"sonance":7978,"Ġlittlest":7979,"Ġusual":7980,"Ġeverywhere":7981,"Ġthinkings":7982,"perspective":7983,"Ġmathy":7984,"Ġunderlin":7985,"Ġ84":7986,"Ġ86":7987,"Ġ846":7988,"Ġ896":7989,"Ġaggres":7990,"ĠCU":7991,"ĠCould":7992,"ĠCove":7993,"ĠCity":7994,"ĠCope":7995,"ĠCru":7996,"ĠCallen":7997,"ĠCara":7998,"ĠConnor":7999,"ĠCarina":8000,"ocation":8001,"ĠBy":8002,"ĠBree":8003,"ĠBell":8004,"ĠBrain":8005,"ĠBray":8006,"ĠBrod":8007,"ĠBob":8008,"ĠBuck":8009,"ĠBlook":8010,"ĠBren":8011,"ĠBuddy":8012,"ĠBowlo":8013,"ĠBoulder":8014,"Ġ700":8015,"Ġ728":8016,"Ġ742":8017,"Ġwherever":8018,"Ġstrip":8019,"Ġstrange":8020,"Ġstriving":8021,"Ġstrict":8022,"Ġlettuce":8023,"Ġtimefr":8024,"Ġ-âĪ":8025,"Ġsolver":8026,"Ġsolves":8027,"Ġreader":8028,"Ġreaders":8029,"Ġtears":8030,"Ġpriv":8031,"Ġprize":8032,"Ġpraying":8033,"Ġprimary":8034,"Ġ92":8035,"tices":8036,"tically":8037,"ticip":8038,"Ġgraphically":8039,"Ġparked":8040,"Ġparticip":8041,"Ġformer":8042,"Ġforming":8043,"Ġformed":8044,"Ġpillow":8045,"Shh":8046,"Shit":8047,"Shrig":8048,"isted":8049,"istants":8050,"Ġ124":8051,"Ġ1200":8052,"aks":8053,"Ġcoin":8054,"Ġcoated":8055,"Ġcogn":8056,"Ġloophole":8057,"ivan":8058,"Ġmobs":8059,"Ġshared":8060,"Ġsecant":8061,"âĢľ":8062,"ĠJoy":8063,"ĠJoseph":8064,"ĠJumeiya":8065,"ĠJesus":8066,"ĠJosua":8067,"Ġpointed":8068,"Ġexamole":8069,"Ġ000":8070,"asters":8071,"ongoloid":8072,"122":8073,"12345":8074,"ominique":8075,"Ġunfold":8076,"Ġunlike":8077,"Ġunfortunately":8078,"Ġunlim":8079,"Ġunrational":8080,"Ġunsure":8081,"Ġunacceptable":8082,"Ġunusual":8083,"Ġcalc":8084,"Ġcalming":8085,"Ġdeno":8086,"Ġdensity":8087,"Infin":8088,"Incl":8089,"Ancient":8090,"Ġdividable":8091,"Ġ207":8092,"Ġ2012":8093,"Ġ2020":8094,"assy":8095,"Goes":8096,"Ġmodifies":8097,"Ġmodifier":8098,"Ġdecides":8099,"Ġdeciding":8100,"Ġdeconstr":8101,"Ġdecrease":8102,"Ġdecreases":8103,"Ġeighty":8104,"Ġeighteen":8105,"ĠMakes":8106,"ĠMiles":8107,"ĠMaden":8108,"ĠMaroon":8109,"ĠMirian":8110,"ĠMackenzie":8111,"ĠMckale":8112,"ĠMaken":8113,"ĠMVP":8114,"ĠMoan":8115,"ĠMinecraft":8116,"ĠMatty":8117,"ĠMerced":8118,"ĠMasters":8119,"ĠMongoloid":8120,"Ġremove":8121,"reating":8122,"teven":8123,"Ġdrawer":8124,"Ġvalid":8125,"agine":8126,"before":8127,"Ġspin":8128,"Ġspit":8129,"Ġspart":8130,"Ġspell":8131,"Ġspun":8132,"Ġspill":8133,"Ġspring":8134,"Ġspray":8135,"Ġspiel":8136,"Ġspilt":8137,"Ġspoke":8138,"Ġspiders":8139,"Ġtablet":8140,"Ġwording":8141,"Ġfungus":8142,"Ġexpose":8143,"Ġcircling":8144,"ĠYs":8145,"ĠYellow":8146,"Ġpositives":8147,"Ġsubstit":8148,"Ġsubcon":8149,"Hear":8150,"Heaven":8151,"Ġidiot":8152,"Ġese":8153,"ila":8154,"iling":8155,"ilies":8156,"ilbert":8157,"ilitator":8158,"Ġsidewalk":8159,"Ġlearns":8160,"avez":8161,"Ġjoy":8162,"Ġjoke":8163,"Ġdishe":8164,"Ġdismis":8165,"Ġdisgust":8166,"Ġdismiss":8167,"Ġdissonance":8168,"reading":8169,"Ġ1527":8170,"Ġbuff":8171,"Ġbucks":8172,"Ġbundle":8173,"Ġhappily":8174,"Ġcorrecting":8175,"ugation":8176,"Ġcubing":8177,"Ġcubby":8178,"Ġcubbies":8179,"agement":8180,"Ġestimations":8181,"ĠKind":8182,"ĠKids":8183,"ĠKallen":8184,"ĠKellen":8185,"ĠKara":8186,"ĠKana":8187,"ĠKiah":8188,"ĠKaren":8189,"ĠKirsten":8190,"ĠKarim":8191,"Ġ182":8192,"Stella":8193,"Stretch":8194,"Ġsuit":8195,"Ġsupplies":8196,"Ġsuppose":8197,"Ġtops":8198,"Ġdear":8199,"Ġdefend":8200,"Ġdeepen":8201,"Ġpersonal":8202,"Ġpersonally":8203,"Ġpractical":8204,"Ġpreviously":8205,"Ġprecision":8206,"Ġpressing":8207,"Ġprereading":8208,"Ġmultiplications":8209,"Ġbiggie":8210,"Whereas":8211,"Anyway":8212,"Anyways":8213,"Anytime":8214,"Ġcoupon":8215,"Ġcoupling":8216,"Ġgridd":8217,"Ġgrasp":8218,"Ġimage":8219,"Ġimages":8220,"ĠRC":8221,"ĠRod":8222,"ĠRound":8223,"ĠRash":8224,"ĠRational":8225,"ĠRup":8226,"ĠRange":8227,"ĠRob":8228,"ĠRoman":8229,"ĠRyland":8230,"ĠRaile":8231,"ĠRihan":8232,"ĠRichard":8233,"Ġjobs":8234,"Ġquickest":8235,"Ġfinishes":8236,"isions":8237,"Ġtenacious":8238,"Ġstudies":8239,"Ġstudied":8240,"Everywhere":8241,"ĠSir":8242,"ĠSally":8243,"ĠSun":8244,"ĠSide":8245,"ĠSix":8246,"ĠSorry":8247,"ĠSci":8248,"ĠSouth":8249,"ĠScot":8250,"ĠSeven":8251,"ĠSouther":8252,"ĠSarah":8253,"ĠSomebody":8254,"ĠSchnider":8255,"ĠSassy":8256,"ĠSteven":8257,"Ġmapped":8258,"Ġprodigy":8259,"pretty":8260,"press":8261,"Ġstandards":8262,"Frank":8263,"Ġminusing":8264,"Form":8265,"Ġplaythrough":8266,"Lookie":8267,"Ġremembers":8268,"Ġrememberin":8269,"Ġlongest":8270,"Ġflop":8271,"Ġflavor":8272,"Ġfloating":8273,"Ġfluenc":8274,"Ġflinging":8275,"Ġbites":8276,"Ġ507":8277,"Ġcheckmarks":8278,"Ġcomposite":8279,"Ġcomprom":8280,"Ġcalculus":8281,"Ġcalculating":8282,"Ġfeels":8283,"Ġfeelings":8284,"Ġcommit":8285,"Examine":8286,"Express":8287,"Ġimpecc":8288,"Ġtools":8289,"Ġrevisions":8290,"Somewhat":8291,"gery":8292,"Fours":8293,"Fourth":8294,"Fourteen":8295,"Ġclassic":8296,"Ġhandling":8297,"Ġhandwriting":8298,"Ġcarry":8299,"illiance":8300,"Ġrecall":8301,"Ġrecipe":8302,"Ġrecreating":8303,"sentation":8304,"Ġsmarter":8305,"Ġsmiling":8306,"overed":8307,"ĠChina":8308,"ĠCharles":8309,"ĠChurch":8310,"ĠCheese":8311,"ĠChanging":8312,"ĠChavez":8313,"apple":8314,"apply":8315,"Chris":8316,"Child":8317,"Chester":8318,"Charles":8319,"Chubby":8320,"ierney":8321,"tens":8322,"tenance":8323,"Ġstops":8324,"Ġwaited":8325,"Ġscan":8326,"Ġscored":8327,"Ġscri":8328,"Ġsciss":8329,"Ġscratch":8330,"Ġscales":8331,"Ġscroll":8332,"Send":8333,"Seems":8334,"Ġdotis":8335,"Ġdotted":8336,"ogy":8337,"ĠGive":8338,"ĠGreat":8339,"ĠGood":8340,"ĠGrant":8341,"ĠGarr":8342,"ĠGunner":8343,"ĠGriffin":8344,"ĠGiana":8345,"ĠGeneration":8346,"Ġdesign":8347,"Ġdesire":8348,"show":8349,"share":8350,"shair":8351,"shorter":8352,"shading":8353,"shirts":8354,"201":8355,"203":8356,"205":8357,"2028":8358,"Ġtying":8359,"Ġdiscla":8360,"Ġdiscern":8361,"Ġdiscovery":8362,"Ġdiscovered":8363,"Ġ139":8364,"Ġdaylight":8365,"Showing":8366,"Ġtrio":8367,"Ġtripped":8368,"both":8369,"wording":8370,"Ġcommons":8371,"Ġopinion":8372,"Ġsplits":8373,"fuly":8374,"ĠHave":8375,"ĠHope":8376,"ĠHalle":8377,"ĠHayden":8378,"ĠHarper":8379,"ĠHolly":8380,"ĠHanley":8381,"ĠHEO":8382,"ĠHaley":8383,"ĠHenry":8384,"ĠHolton":8385,"ĠHilbert":8386,"izzie":8387,"Ġconference":8388,"Ġconflict":8389,"Ġconfidence":8390,"ĠEA":8391,"ĠEve":8392,"ĠEach":8393,"ĠEng":8394,"ĠEvel":8395,"ĠEmy":8396,"ĠEagles":8397,"ĠEliz":8398,"ĠEvan":8399,"ĠTo":8400,"ĠTake":8401,"ĠTell":8402,"ĠTurn":8403,"ĠToday":8404,"ĠTina":8405,"ĠTubble":8406,"ĠTanaya":8407,"ĠTristan":8408,"ĠTrish":8409,"ĠTrevor":8410,"ĠTaco":8411,"ĠTombst":8412,"ĠTierney":8413,"Ġcompleted":8414,"Ġrestart":8415,"Ġrestroom":8416,"304":8417,"Ġperfecting":8418,"Ġ($":8419,"Ġ(+":8420,"Ġconversion":8421,"Ġconverted":8422,"Ġbuzzright":8423,"Ġtotals":8424,"Ġfifty":8425,"160":8426,"earson":8427,"Ġ148":8428,"lynomials":8429,"Ġheadphones":8430,"Ġraking":8431,"Ġraises":8432,"Ġdrank":8433,"Ġdrives":8434,"Ġdramatic":8435,"Ġapples":8436,"Ġsigned":8437,"Neat":8438,"Nevia":8439,"leman":8440,"encouraging":8441,"Notty":8442,"Ġpays":8443,"Ġpayment":8444,"Ġ246":8445,"Ġreward":8446,"Ġpicky":8447,"Ġseating":8448,"Ġlistener":8449,"Ġpairing":8450,"ĠDay":8451,"ĠDave":8452,"ĠDav":8453,"ĠDylan":8454,"ĠDenominator":8455,"ĠDuPont":8456,"ĠDenise":8457,"ĠDecia":8458,"ĠDuncan":8459,"ĠDela":8460,"ĠDominique":8461,"Ġdates":8462,"gets":8463,"getable":8464,"ĠPay":8465,"ĠPut":8466,"ĠPage":8467,"ĠPark":8468,"ĠPolly":8469,"ĠPalm":8470,"ĠPEM":8471,"ĠPatrick":8472,"ĠPerfect":8473,"ĠPearson":8474,"Ġskateboard":8475,"Ġidentified":8476,"Already":8477,"Allen":8478,"Alina":8479,"Alvin":8480,"Although":8481,"Period":8482,"Perhaps":8483,"ĠLot":8484,"ĠLiving":8485,"ĠLail":8486,"ĠLiter":8487,"ĠLizeth":8488,"ĠLorna":8489,"ĠLocation":8490,"ĠLizzie":8491,"Ġclever":8492,"Ġinstructor":8493,"Ġblocked":8494,"ĠNine":8495,"ĠNumber":8496,"ĠNational":8497,"ĠNav":8498,"ĠNaz":8499,"ĠNaya":8500,"ĠNaim":8501,"ĠNattie":8502,"ĠNorth":8503,"Ġ253":8504,"Ġspeech":8505,"Ġincome":8506,"Ġincrements":8507,"Ġ119":8508,"Ġnews":8509,"Ġnewbor":8510,"Ġmissed":8511,"ognizing":8512,"240":8513,"2400":8514,"Ġhighly":8515,"rows":8516,"Ġrecognise":8517,"Ġrecognized":8518,"2007":8519,"Ġenhan":8520,"Ġenhanced":8521,"Ġenjoy":8522,"Ġenlar":8523,"Ġenvision":8524,"etery":8525,"Ġpartsand":8526,"Quarter":8527,"Quoti":8528,"why":8529,"while":8530,"eroid":8531,"Ġslap":8532,"Ġslides":8533,"Ġhears":8534,"Ġhimself":8535,"ticularly":8536,"erkats":8537,"Ġdolls":8538,"Ġplots":8539,"Ġtricks":8540,"Eighty":8541,"Eighteen":8542,"Ġ190":8543,"Ġrepeating":8544,"Ġrepeater":8545,"Ġproperly":8546,"traveled":8547,"Ġnicely":8548,"Ġspecified":8549,"respond":8550,"Ġgreens":8551,"Ġconnections":8552,"Ġcoloring":8553,"Ġsymmetric":8554,"Ġdistric":8555,"Ġdistinct":8556,"Ġdistances":8557,"Added":8558,"Beth":8559,"Begin":8560,"Beautiful":8561,"Beetles":8562,"Ġsurgery":8563,"Ġmonitor":8564,"lene":8565,"Ġdisagrees":8566,"Ġdisagreed":8567,"Ġarc":8568,"Ġmistaken":8569,"Ġ223":8570,"Ġ226":8571,"Ġ360":8572,"notes":8573,"notty":8574,"âĪĽ":8575,"Ġobvious":8576,"Ġobserve":8577,"Ġobtain":8578,"Ġtwisted":8579,"Plan":8580,"Place":8581,"iety":8582,"ĠWalm":8583,"ĠWashington":8584,"ĠWyatt":8585,"282":8586,"288":8587,"marize":8588,"Ġresidual":8589,"Ġconstraint":8590,"Ġtyping":8591,"taking":8592,"ĠÏĢN":8593,"ĠÏĢs":8594,"Ġleads":8595,"Ġinterim":8596,"Ġinteraction":8597,"Ġinterval":8598,"Ġinterrup":8599,"Ġinterview":8600,"Ġrooms":8601,"Ġspecificity":8602,"Ġholding":8603,"Ġholders":8604,"Ġexpandable":8605,"Turns":8606,"Ġshortest":8607,"Ġmessy":8608,"Ġmesses":8609,"Ġsnakes":8610,"Ġsnaps":8611,"ustina":8612,"Ġfarther":8613,"ĠWhatever":8614,"Ġswim":8615,"Ġ275":8616,"Teach":8617,"Teaching":8618,"Numbers":8619,"Ġfoot":8620,"253":8621,"256":8622,"Ġreflex":8623,"Ġphase":8624,"Ġamounts":8625,"Ġsurfing":8626,"Ġapparent":8627,"Ġflips":8628,"ateral":8629,"ĠFatu":8630,"ĠFMA":8631,"Ġnotices":8632,"Ġcounts":8633,"Ġcountry":8634,"Ġcarried":8635,"Guess":8636,"ĠJacks":8637,"Ġassistants":8638,"Ġreviewed":8639,"Ġfreely":8640,"Ġridicul":8641,"191":8642,"192":8643,"3638":8644,"explain":8645,"Ġexpressing":8646,"ĠâĪŀ.":8647,"need":8648,"nearest":8649,"Friend":8650,"ĠFrom":8651,"ĠFrank":8652,"ĠFront":8653,"Ġwatched":8654,"Ġlights":8655,"Ġtracker":8656,"Ġvariety":8657,"Ġadults":8658,"Ġvisible":8659,"Ġvisiting":8660,"Ġvisited":8661,"aphorical":8662,"Ġrationalize":8663,"Ġexpectation":8664,"Real":8665,"Refer":8666,"bols":8667,"riculum":8668,"values":8669,"Ġpizzas":8670,"Ġjoining":8671,"Ġfollowed":8672,"Ġvolcan":8673,"ĠFridays":8674,"Ġpassport":8675,"Amber":8676,"Amazing":8677,"Ġsingers":8678,"Ġcancels":8679,"Ġcancelled":8680,"Ġkeyboard":8681,"Ġkeyword":8682,"Ġkeynotes":8683,"Ġsymbols":8684,"Ġdoubled":8685,"Ġstores":8686,"Ġforgetting":8687,"Ġaccompl":8688,"Ġaccustomed":8689,"177":8690,"Ours":8691,"Ġgenuine":8692,"Ġmarry":8693,"Ġmarsh":8694,"Ġrotating":8695,"ectionately":8696,"Ġallows":8697,"Ġallowing":8698,"Ġclipboards":8699,"Ġspending":8700,"Ġviolins":8701,"1300":8702,"Proving":8703,"oebe":8704,"Ġchooses":8705,"Timeling":8706,"Ġcapturing":8707,"Ġweekly":8708,"ponsib":8709,"ĠVaroon":8710,"ĠVIP":8711,"ĠVeniss":8712,"Ġtransfer":8713,"Ġtransformation":8714,"Ġsimilarly":8715,"Ġcarpeted":8716,"aire":8717,"ĠAnarella":8718,"ĠBrown":8719,"ĠBroody":8720,"ĠBridger":8721,"ĠBrooklyn":8722,"Ġvisuals":8723,"cipline":8724,"Ġsorted":8725,"Ġcourt":8726,"Ġregroup":8727,"Ġregions":8728,"Ġshades":8729,"Starts":8730,"Started":8731,"Ġapplaud":8732,"Meagan":8733,"Meatballs":8734,"Measure":8735,"Meerkats":8736,"Ġentered":8737,"Ġperiods":8738,"Ġcombinations":8739,"Ġtallest":8740,"Ġgrabs":8741,"Possib":8742,"Positives":8743,"ĠZak":8744,"ĠZeus":8745,"Ġinclusive":8746,"Ġglasses":8747,"Ġfamilies":8748,"Ġmidline":8749,"Ġmidlevel":8750,"Ġmidterm":8751,"Subdiv":8752,"ĠOli":8753,"ĠOops":8754,"ĠObviously":8755,"ĠOscar":8756,"Ġtraject":8757,"Ġ286":8758,"Ġ288":8759,"Ġ289":8760,"ĠJulianna":8761,"Ġdecomposed":8762,"Ġdecomposing":8763,"Ġdecomposes":8764,"Ġhighlighting":8765,"Ġvarious":8766,"Ġvariance":8767,"Ġprompted":8768,"Ġrelate":8769,"Ġrelating":8770,"Ġrelisten":8771,"Ġrelatively":8772,"Agree":8773,"Ġloudly":8774,"Ġmorphed":8775,"Absolute":8776,"Bye":8777,"Saying":8778,"solving":8779,"ĠNoah":8780,"Ġmemorizing":8781,"Ġmemorized":8782,"abeth":8783,"abetical":8784,"Ġletters":8785,"Ġarguing":8786,"Ġarguments":8787,"Ġgeneric":8788,"Ġgenerally":8789,"Ġgenerically":8790,"Ġgenerous":8791,"Kayla":8792,"Kaylie":8793,"ĠAnnabellela":8794,"Coefficient":8795,"Ġdetective":8796,"Ġdetailed":8797,"they":8798,"Ġinfinite":8799,"343":8800,"ilding":8801,"Ġburning":8802,"Ġcurios":8803,"Ġcursor":8804,"Ġcurriculum":8805,"Ġdominating":8806,"Ġfruition":8807,"Ġdiagonally":8808,"ĠMathias":8809,"Timesing":8810,"Convers":8811,"Connect":8812,"Conversions":8813,"Factors":8814,"Minecraft":8815,"Update":8816,"Ġhorse":8817,"Ġhorror":8818,"Ġhorizonal":8819,"Ġbrown":8820,"Ġbriefly":8821,"Ġbrilliance":8822,"Ġembed":8823,"Ġemerges":8824,"Ġinvite":8825,"Ġinvest":8826,"ologies":8827,"ĠReid":8828,"ĠRebecca":8829,"Ġentirely":8830,"Happy":8831,"Hazius":8832,"Ġfixing":8833,"Ġdetermines":8834,"055":8835,"Ġrecords":8836,"Ġrecordings":8837,"Ġcontinues":8838,"Ġcontinued":8839,"Ġcontinuing":8840,"Broody":8841,"Bradateg":8842,"Working":8843,"Ġthreesome":8844,"Ġsampled":8845,"Ġbulbs":8846,"Ġbillion":8847,"Ġmeets":8848,"Ġmeeting":8849,"Ġtopics":8850,"Ġflatter":8851,"Ġflatness":8852,"Ġpossibly":8853,"Ġmomentarily":8854,"Dividend":8855,"Left":8856,"Leah":8857,"identical":8858,"Ġjumping":8859,"Ġjumped":8860,"Ġboring":8861,"Ġpennies":8862,"Basic":8863,"Dean":8864,"Debbie":8865,"Picky":8866,"Unless":8867,"Unlike":8868,"Unfortunately":8869,"from":8870,"fractions":8871,"irement":8872,"ointed":8873,"Ġcrosses":8874,"ancing":8875,"Ġweighs":8876,"Ġseptic":8877,"Ġ570":8878,"Ġvideotape":8879,"Ġ857":8880,"Ġblanks":8881,"Ġdiscounts":8882,"Ġreasonableness":8883,"Ġtranslate":8884,"Ġtranslated":8885,"Ġjustifying":8886,"Ġadjustable":8887,"Ġburger":8888,"Ġburrows":8889,"Ġhurt":8890,"Ġhurting":8891,"Preston":8892,"Pretend":8893,"Presentation":8894,"Oopsies":8895,"String":8896,"Ġtitles":8897,"Ġmachines":8898,"Ġforehead":8899,"Ġforeign":8900,"Ġcorrections":8901,"Ġcorpor":8902,"Ġcorrelation":8903,"Ġcorrespond":8904,"Ġcritters":8905,"Ġundiscern":8906,"Ġexciting":8907,"Solving":8908,"Ġperformer":8909,"Ġconjunction":8910,"Ġconjuncture":8911,"Ġsnowing":8912,"Ġappreciated":8913,"Ġincludes":8914,"ĠSoso":8915,"Ġaverages":8916,"Ġaveraging":8917,"ĠColeman":8918,"ssa":8919,"Ġreferred":8920,"Directions":8921,"Maths":8922,"Mathias":8923,"Twelve":8924,"convers":8925,"divide":8926,"Ġtrained":8927,"Ġseriously":8928,"Ġsqured":8929,"Ġbene":8930,"Ġbenches":8931,"Ġmetaphorical":8932,"Ġpackets":8933,"Ġcrosswise":8934,"Ġcrosshair":8935,"Ġliquid":8936,"Ġlayer":8937,"Ġlaying":8938,"Ġweirdest":8939,"Ġrunway":8940,"Ġrunners":8941,"Ġ357":8942,"Ġtrigonometry":8943,"Ġintegers":8944,"Ġdisplaying":8945,"Ġbuilds":8946,"Ġbuilder":8947,"ĠKellon":8948,"Ġclassrooms":8949,"Ġpatiently":8950,"Ġresult":8951,"Ġresulting":8952,"Ġresulted":8953,"Ġintersection":8954,"Ġadvancing":8955,"Estimation":8956,"Estimates":8957,"doing":8958,"Clara":8959,"Closing":8960,"Closest":8961,"Ġburrito":8962,"Ġreaches":8963,"Ġcatching":8964,"Grade":8965,"Ġborrowing":8966,"Coming":8967,"Combining":8968,"Comparing":8969,"Compared":8970,"Fifty":8971,"Integ":8972,"Intuitive":8973,"Luca":8974,"Lucian":8975,"Partition":8976,"Particularly":8977,"Samantha":8978,"class":8979,"Ġerasing":8980,"Ġeraser":8981,"Ġauditor":8982,"Ġlandmarks":8983,"Ġrelevance":8984,"Ġstamp":8985,"Ġbuttons":8986,"ĠAlot":8987,"ĠBenicio":8988,"Ġ765":8989,"Ġrolls":8990,"ĠElias":8991,"Ġrefreshing":8992,"Ġrefreshes":8993,"Ġgeneralize":8994,"Ġemphasize":8995,"Difference":8996,"Ġintersects":8997,"Phoebe":8998,"Ġhangs":8999,"Ġpowered":9000,"strong":9001,"ĠAlexa":9002,"Ġapproaching":9003,"Ġapproxim":9004,"Art":9005,"clears":9006,"Ġmotivate":9007,"Ġcrash":9008,"Ġcleaned":9009,"Duplicates":9010,"Halfway":9011,"Suma":9012,"Summarize":9013,"dygook":9014,"ĠAllison":9015,"Ġaware":9016,"Ġawater":9017,"Ġacts":9018,"Ġacting":9019,"Ġsketchy":9020,"Ġmedium":9021,"Ġfacilities":9022,"Ġfacilitator":9023,"Ġpotential":9024,"Ġcrap":9025,"Ġcupcakes":9026,"Ġlimits":9027,"Ġlimitation":9028,"Ġweights":9029,"Ġexpert":9030,"Ġexperts":9031,"Ġexperience":9032,"Ġcharge":9033,"Ġcharity":9034,"Ġpaste":9035,"ifications":9036,"ĠCassie":9037,"Ġamongst":9038,"Ġcoaching":9039,"Ġcoaches":9040,"ĠMichaela":9041,"Ġsubdivide":9042,"Ġsubdivided":9043,"Ġeliminated":9044,"ĠSilver":9045,"ĠSilvia":9046,"ĠSavara":9047,"Ġrecommendation":9048,"Ġscores":9049,"ĠDeDeAngelo":9050,"Ġmisconceptions":9051,"Ġassumes":9052,"Ġparaphrases":9053,"backgroud":9054,"Ġcurrently":9055,"Ġdistractions":9056,"ĠMissouri":9057,"Ġcommunication":9058,"ĠPrinciple":9059,"Ġpressure":9060,"Ġscooch":9061,"Helping":9062,"'',":9063,"Active":9064,"Accur":9065,"Colton":9066,"College":9067,"Cube":9068,"Cubed":9069,"Carlsten":9070,"Easier":9071,"Easiest":9072,"Elias":9073,"Jesse":9074,"Juliana":9075,"Marcus":9076,"Martha":9077,"Marcia":9078,"Marcella":9079,"Modifies":9080,"Modifications":9081,"Polly":9082,"Polynomials":9083,"Respective":9084,"Responsib":9085,"Recently":9086,"Recognizing":9087,"Smoked":9088,"Sections":9089,"Simply":9090,"Similar":9091,"Triangles":9092,"Understanding":9093,"ĠShh":9094,"ĠShanaya":9095,"Ġterrible":9096,"Ġaffecting":9097,"Ġaffected":9098,"Ġwinner":9099,"Ġwinning":9100,"Ġwonderful":9101,"Ġignoring":9102,"Ġdaddy":9103,"Ġdepth":9104,"Ġhumming":9105,"Ġfalls":9106,"Ġpoles":9107,"Ġpolice":9108,"Ġissues":9109,"Ġdirecting":9110,"Ġdirected":9111,"Ġdirectly":9112,"Ġlearners":9113,"Ġalphabetical":9114,"Ġintroduction":9115,"Ġintroduces":9116,"Ġconsiderations":9117,"Ġtaste":9118,"Ġblacks":9119,"Ġdisappearing":9120,"Ġdisappointed":9121,"Ġimagining":9122,"Ġimaginary":9123,"Ġterminologies":9124,"ĠSpring":9125,"ĠSpider":9126,"ĠSprat":9127,"ĠSpanish":9128,"ĠGrady":9129,"ĠGradie":9130,"Ġdescribes":9131,"Ġdescribed":9132,"Ġapologizing":9133,"Ġgladly":9134,"Ġreflections":9135,"Ġphotos":9136,"Ġmathematics":9137,"Ġtwelfth":9138,"Ġtouchy":9139,"Ġtouching":9140,"Ġanalyzes":9141,"Completing":9142,"Lucienhas":9143,"Ġscorpion":9144,"Ġchallenged":9145,"Ġcontexts":9146,"Kelly":9147,"Technicallycould":9148,"Ġmaterials":9149,"Ġpredators":9150,"Ġaccounted":9151,"Ġcollected":9152,"Ġdemonstrates":9153,"Katya":9154,"Ġcontains":9155,"Ġcontainer":9156,"Fortunately":9157,"Calin":9158,"Calories":9159,"Bigger":9160,"Decide":9161,"Freeze":9162,"Image":9163,"Important":9164,"Imagine":9165,"Justice":9166,"Location":9167,"Mikel":9168,"Mikey":9169,"Opposite":9170,"Renae":9171,"Retaking":9172,"Speed":9173,"Speak":9174,"Speaking":9175,"Type":9176,"everybody":9177,"eaky":9178,"factorable":9179,"multiplies":9180,"something":9181,"sixth":9182,"Ġencloses":9183,"Ġtechnical":9184,"Ġairplane":9185,"Ġbananas":9186,"Ġmastering":9187,"Ġpuzzlement":9188,"ĠInstead":9189,"Ġeffort":9190,"Thirty":9191,"Ġreplace":9192,"Ġshelf":9193,"Ġshelves":9194,"Ġshelters":9195,"Ġupsetting":9196,"Ġattending":9197,"Ġattendance":9198,"Ġfrustrating":9199,"Ġsequential":9200,"Ġprogresses":9201,"Ġhello":9202,"Ġoverlay":9203,"Ġoverlap":9204,"Ġoverlaps":9205,"Ġchicken":9206,"Ġchildren":9207,"ĠClass":9208,"ĠClaypack":9209,"ĠClaire":9210,"ĠBeep":9211,"Ġcondo":9212,"Ġcollaboratively":9213,"Ġsecretly":9214,"ĠMax":9215,"ĠMalena":9216,"Ġsuddenly":9217,"Ġdevice":9218,"Ġdevelop":9219,"ĠRaylan":9220,"ĠRaymond":9221,"Ġcomparisons":9222,"Ġrevisit":9223,"Ġrevisiting":9224,"Ġrevisited":9225,"Ġacquintance":9226,"Ġactively":9227,"ĠChapel":9228,"Quadratics":9229,"Ġslashes":9230,"Ġresource":9231,"Ġrespecting":9232,"Ġswivel":9233,"Ġobjects":9234,"ĠAnnabel":9235,"Ġcamping":9236,"Ġcampfire":9237,"Ġrelationship":9238,"Conjugation":9239,"Williams":9240,"Ġconjugates":9241,"Ġpopulations":9242,"Danielle":9243,"Ġcharacters":9244,"Ġterritory":9245,"Ġreflects":9246,"Ġreflected":9247,"Finishing":9248,"Identifying":9249,"Ġevaluates":9250,"Ġrubrics":9251,"Ġattempting":9252,"Ġattempted":9253,"Ġsynonyms":9254,"Students":9255,"ĠGarrett":9256,"Ġwarmups":9257,"guided":9258,"guessing":9259,"Ġgrandpa":9260,"Ġscene":9261,"Ġindividually":9262,"Ġorganizing":9263,"Ġorganized":9264,"Ġpercents":9265,"picious":9266,"765":9267,"Buddy":9268,"Buying":9269,"Clean":9270,"Clear":9271,"Cassidy":9272,"Cassandra":9273,"Doubling":9274,"Douglin":9275,"Equation":9276,"Equivalent":9277,"Genius":9278,"Generically":9279,"Highly":9280,"Highlight":9281,"Hands":9282,"Jenna":9283,"Jenni":9284,"Kalen":9285,"Kaelyn":9286,"Kylen":9287,"Makayla":9288,"Maizy":9289,"Numerator":9290,"Numero":9291,"Piece":9292,"Radical":9293,"Radicand":9294,"Rectangle":9295,"Rectangles":9296,"buy":9297,"building":9298,"bonce":9299,"grouping":9300,"lantic":9301,"supposed":9302,"sufficient":9303,"squares":9304,"ĠWhite":9305,"ĠWhisper":9306,"ĠStone":9307,"ĠStella":9308,"Ġtougher":9309,"Ġthirty":9310,"Ġthirteen":9311,"Ġwacko":9312,"Ġwacky":9313,"Ġwaste":9314,"Ġwasting":9315,"Ġdictate":9316,"Ġdictating":9317,"Ġbeside":9318,"Ġbesides":9319,"Ġfading":9320,"Ġfaded":9321,"Ġfreshly":9322,"Ġcategories":9323,"Ġcategory":9324,"Ġcapability":9325,"Ġcushion":9326,"Ġcushions":9327,"Ġitalics":9328,"Ġitalicized":9329,"Ġharm":9330,"Ġharsh":9331,"Ġdocument":9332,"Ġeffects":9333,"Ġeyeballs":9334,"Ġinquire":9335,"Ġinquiry":9336,"Ġrequest":9337,"Ġrequirement":9338,"Ġshrink":9339,"Ġshrinks":9340,"Ġstretched":9341,"Ġattraction":9342,"Ġattracted":9343,"Ġexisting":9344,"Ġoutputting":9345,"Theirs":9346,"Ġplaced":9347,"Ġplacement":9348,"Ġchains":9349,"Ġchunk":9350,"Ġchunks":9351,"Ġchalkboard":9352,"Ġguarders":9353,"Ġcompression":9354,"Ġcompressed":9355,"ĠAtlant":9356,"ĠAtlantic":9357,"Ġpersevering":9358,"Ġperseverance":9359,"ĠCarlos":9360,"ĠCarlston":9361,"ĠBilly":9362,"Ġtexts":9363,"Ġroadblock":9364,"Ġformality":9365,"Shorten":9366,"Insert":9367,"Insurance":9368,"Ġdecisions":9369,"ĠMarcus":9370,"ĠMartha":9371,"ĠMica":9372,"ĠMicale":9373,"ĠMikey":9374,"ĠMakeup":9375,"ĠMakeila":9376,"ĠMelina":9377,"ĠMelisa":9378,"Ġvalleys":9379,"opened":9380,"ĠKeith":9381,"ĠKeating":9382,"ĠKatia":9383,"ĠKatya":9384,"ĠKatey":9385,"ĠRussian":9386,"Ġverbally":9387,"ĠGerman":9388,"ĠGermany":9389,"ĠHolden":9390,"Ġconfirm":9391,"Ġconfirmed":9392,"ĠTaivan":9393,"Ġapplets":9394,"ĠPartner":9395,"Percentage":9396,"Percentages":9397,"ĠLeave":9398,"ĠLevel":9399,"Ġincreased":9400,"Ġengaging":9401,"Ġengagement":9402,"Ġsurprising":9403,"Ġsurprises":9404,"Player":9405,"Players":9406,"Plotting":9407,"Ġsneeze":9408,"Ġsneezed":9409,"Ġdoubt":9410,"Ġdoubts":9411,"Ġaccidentally":9412,"ĠVictoria":9413,"ĠOdin":9414,"ĠOdem":9415,"ĠItalian":9416,"ĠItalics":9417,"Coaches":9418,"Ġserved":9419,"Ġsquiggle":9420,"Ġsquiggly":9421,"Interestingly":9422,"Ġpolygons":9423,"Ġcrunchy":9424,"Ġcrunched":9425,"Ġexperimenting":9426,"Ġcommunicator":9427,"Ġcommunicating":9428,"Modifying":9429,"Simplifying":9430,"Ġdelayed":9431,"Ġeffectively":9432,"Ġconductors":9433,"Conjectures":9434,"Ġcharacterize":9435,"Ġcharacteristic":9436,"Memorize":9437,"Memorizing":9438,"Ġnecklace":9439,"Ġnecklaces":9440,"Ġoverwhelmed":9441,"Ġoverwhelming":9442,"Ġenthusiasm":9443,"Ġenthusiastic":9444,"Ġinterrupting":9445,"coefficient":9446,"Ġimpressed":9447,"ĠEmma":9448,"counting":9449,"Ġalgebraic":9450,"Calculators":9451,"2133638":9452,"8137":9453,"Apply":9454,"Aww":9455,"Average":9456,"Alyssa":9457,"Augustina":9458,"Brothers":9459,"Below":9460,"Bilal":9461,"Becka":9462,"Birdie":9463,"Couple":9464,"Corner":9465,"Cookie":9466,"Copy":9467,"Continuing":9468,"Cupcakes":9469,"Conductor":9470,"Certainly":9471,"Driving":9472,"Describe":9473,"Dereck":9474,"Detailed":9475,"Entire":9476,"Establish":9477,"Extra":9478,"Elsie":9479,"Foil":9480,"Focus":9481,"Folding":9482,"Fairly":9483,"GIS":9484,"Greetings":9485,"Girls":9486,"Houston":9487,"Henley":9488,"Homework":9489,"Humans":9490,"Hugo":9491,"Hundredths":9492,"Harland":9493,"Hudio":9494,"Index":9495,"Jeff":9496,"Jeremiah":9497,"Jasper":9498,"Jamie":9499,"Julia":9500,"Judy":9501,"Jumpscare":9502,"Kettie":9503,"Kira":9504,"Kathleen":9505,"LOL":9506,"Layla":9507,"Longer":9508,"Matthew":9509,"Morris":9510,"Momentarily":9511,"Median":9512,"Madin":9513,"Music":9514,"Maintenance":9515,"Nelson":9516,"Numbered":9517,"Navir":9518,"Purple":9519,"Puzzles":9520,"Roger":9521,"Rylene":9522,"Remind":9523,"Relate":9524,"Rewrite":9525,"Rusell":9526,"Rudiard":9527,"Seriously":9528,"Skewed":9529,"Sedan":9530,"Squeaky":9531,"Silicon":9532,"Sweetie":9533,"Specific":9534,"Symbols":9535,"Spaghetti":9536,"True":9537,"Turkey":9538,"Vertices":9539,"Variables":9540,"Walter":9541,"Wedges":9542,"Woohoo":9543,"Yulber":9544,"bigger":9545,"between":9546,"crooked":9547,"calc":9548,"colored":9549,"deal":9550,"directions":9551,"discipline":9552,"depth":9553,"degree":9554,"fluid":9555,"favorite":9556,"hending":9557,"lasses":9558,"nels":9559,"pieces":9560,"racist":9561,"sciously":9562,"tuning":9563,"variable":9564,"ybeans":9565,"Ġvegetable":9566,"ĠQuantic":9567,"ĠSophie":9568,"ĠThanksgiving":9569,"ĠUncle":9570,"Ġtiny":9571,"Ġtleast":9572,"Ġtrouble":9573,"Ġtunnels":9574,"Ġtweaks":9575,"Ġthoroughly":9576,"Ġthroat":9577,"Ġasteroid":9578,"Ġache":9579,"Ġaffectionately":9580,"Ġauthor":9581,"Ġafraid":9582,"infinity":9583,"Ġwidths":9584,"Ġwaseasy":9585,"Ġwrestle":9586,"Ġsanity":9587,"Ġskeptical":9588,"Ġsource":9589,"Ġsuspicious":9590,"Ġsuggestions":9591,"Ġsensor":9592,"Ġsunglasses":9593,"Ġocean":9594,"Ġduty":9595,"Ġdirty":9596,"Ġdessert":9597,"Ġdeadly":9598,"Ġdrivers":9599,"Ġdepending":9600,"Ġdimensions":9601,"Ġdancers":9602,"Ġdwellat":9603,"Ġgirlfrie":9604,"Ġgauge":9605,"Ġgesture":9606,"Ġgathers":9607,"Ġgentleman":9608,"Ġhogs":9609,"Ġhypotenuse":9610,"Ġbalance":9611,"Ġbummer":9612,"Ġbodies":9613,"Ġbusy":9614,"Ġbilateral":9615,"Ġbiology":9616,"Ġbumped":9617,"Ġmama":9618,"Ġmastered":9619,"Ġmongoose":9620,"Ġmuffins":9621,"estimation":9622,"Ġfalse":9623,"Ġfuture":9624,"Ġfascinating":9625,"Ġfrosting":9626,"Ġfaint":9627,"Ġfiercely":9628,"Ġfault":9629,"Ġfiltered":9630,"Ġpanicked":9631,"Ġpineapple":9632,"Ġpsycholog":9633,"Ġcartoon":9634,"Ġcoding":9635,"Ġcemetery":9636,"Ġcabinet":9637,"Ġcredit":9638,"Ġcrowded":9639,"Ġcetera":9640,"Ġcalendars":9641,"Ġcautious":9642,"Ġnodding":9643,"Ġnuggets":9644,"Ġnuclear":9645,"Ġnarrative":9646,"Ġnaturalist":9647,"ĠIrwin":9648,"Ġgovernment":9649,"Ġgobbledygook":9650,"Ġisosceles":9651,"Ġlamp":9652,"Ġlonely":9653,"Ġlizards":9654,"Ġlaptop":9655,"Ġweakest":9656,"Ġelevator":9657,"Ġbeautiness":9658,"Ġinvestigation":9659,"Ġinaccurate":9660,"Ġrodents":9661,"Ġrationale":9662,"Ġranged":9663,"Ġrocket":9664,"Ġribbon":9665,"Ġrushing":9666,"Ġupload":9667,"Ġultimate":9668,"Ġwhatsoever":9669,"Ġwhoops":9670,"Ġwhaaky":9671,"Ġannoying":9672,"quicker":9673,"Ġreinforced":9674,"Ġjackals":9675,"Ġjellybeans":9676,"Ġjuggled":9677,"Ġshift":9678,"Ġstumbled":9679,"Ġstumbles":9680,"Ġkitchen":9681,"Ġmeercats":9682,"Ġknobs":9683,"Ġfrigging":9684,"Ġexercises":9685,"Ġprocessed":9686,"Theoretically":9687,"Ġlemonade":9688,"Ġlenght":9689,"Ġtraditional":9690,"Ġoverheard":9691,"Ġ5208":9692,"Doggone":9693,"Ġchaotic":9694,"Ġguests":9695,"Ġguarantee":9696,"Ġclaws":9697,"Ġclothes":9698,"Ġcomprehending":9699,"ĠAshgail":9700,"ĠAlina":9701,"ĠAthena":9702,"ĠAmazon":9703,"ĠAldridge":9704,"Ġbacktrack":9705,"Ġmanipulate":9706,"Ġvague":9707,"Ġdifficulties":9708,"Ġintelligent":9709,"Ġpermanent":9710,"Ġpermission":9711,"Ġpersisting":9712,"Ġconcentrate":9713,"Ġconsidered":9714,"Ġconvinced":9715,"Ġunderlined":9716,"Ġaggressive":9717,"ĠCruz":9718,"ĠBrainPOP":9719,"ĠBrayden":9720,"ĠBrodie":9721,"ĠBlooks":9722,"ĠBrenn":9723,"Ġstrictly":9724,"Ġtimeframe":9725,"Ġ-âĪŀ,":9726,"Ġprivate":9727,"Ġparticipants":9728,"Shrigley":9729,"Ġcognitive":9730,"1234567":9731,"Ġunlimited":9732,"Infinite":9733,"Include":9734,"Ġdeconstruct":9735,"ĠMakenna":9736,"ĠMoanna":9737,"ĠMercedes":9738,"Ġsubstituting":9739,"Ġsubconsciously":9740,"Ġdisheveled":9741,"Ġdismissed":9742,"Ġdisgusting":9743,"ĠKanaan":9744,"Ġgridded":9745,"ĠRashad":9746,"ĠRationalizing":9747,"ĠRupus":9748,"ĠRobin":9749,"ĠRailen":9750,"ĠRihanna":9751,"ĠScience":9752,"ĠScotland":9753,"ĠSouthern":9754,"Ġfluency":9755,"Ġcompromise":9756,"Ġimpeccable":9757,"Children":9758,"Ġscripts":9759,"Ġscissors":9760,"ĠGarrick":9761,"Ġdisclaimer":9762,"Ġdiscernible":9763,"ĠHopefuly":9764,"ĠEnglish":9765,"ĠEveline":9766,"ĠElizabeth":9767,"ĠTombstone":9768,"ĠDavid":9769,"ĠPEMDAS":9770,"ĠLaila":9771,"ĠLiterature":9772,"ĠNavaiah":9773,"ĠNazarene":9774,"Ġnewborns":9775,"Ġenhances":9776,"Ġenlarge":9777,"Quotient":9778,"Ġdistrict":9779,"ĠWalmart":9780,"Ġconstraints":9781,"Ġinterruption":9782,"Ġridiculously":9783,"Ġvolcanoes":9784,"Ġaccomplish":9785,"Ġgenuinely":9786,"ĠVenissio":9787,"Ġtransferred":9788,"Measurement":9789,"Possibly":9790,"Subdividing":9791,"ĠOliver":9792,"Ġtrajectory":9793,"Ġrelistening":9794,"Absolutely":9795,"Ġcuriosity":9796,"Conversations":9797,"Ġembedded":9798,"Bradategies":9799,"Ġcorporate":9800,"Ġcorresponding":9801,"Ġundiscernible":9802,"conversation":9803,"Ġcrosshairs":9804,"Integers":9805,"Partitioned":9806,"Ġauditorium":9807,"Ġapproximates":9808,"Accuracy":9809,"Respectively":9810,"Responsibility":9811,"ĠAtlanta":9812,"213363839":9813,"Establishing":9814,"Ġgirlfriend":9815,"Ġpsychological":9816,"Ġnaturalists":9817,"'.\"|||":9818,")?":9819,")?|||(":9820,",-|||-":9821,"-.|||":9822,".?|||":9823,".-|||":9824,"=|||":9825,"?.|||":9826,"?âĢĿ|||":9827,"Bing":9828,"Bubble":9829,"Jo":9830,"Mess":9831,"Pencil":9832,"Silent":9833,"^(":9834,"ahead":9835,"lies":9836,"off":9837,"Ġ,|||":9838,"Ġtill":9839,"|||+":9840,".|||âĢľ":9841,"Ġdand":9842,"Ġbright":9843,"?|||,":9844,"enario":9845,"idate":9846,"Ġrece":9847,"Ġups":9848,"Ġexcel":9849,"Ġquote":9850,"Ġ.|||-":9851,"aches":9852,"Cane":9853,"Shoe":9854,"-|||,":9855,"Ġexamined":9856,"Ġ\"\"|||":9857,"ĠMy":9858,"trade":9859,"ĠKrist":9860,"Ġ+|||":9861,"Ġ=|||":9862,"Ġ..|||":9863,"Ġhandy":9864,"Ġrecent":9865,"Ġ?|||.":9866,"ĠElena":9867,"Ġquizes":9868,"ordinate":9869,"Ġlovelies":9870,"?\"|||-":9871,"ĠWhats":9872,"171":9873,"Ġfinalized":9874,"Ġrelative":9875,"ĠAnnabellea":9876,"Ġ?.|||":9877,"ĠTheo":9878,"Ġaccuracy":9879,"ĠCober":9880,"Ġapproaches":9881,"Ġcandidate":9882,"Scenario":9883,"ĠPrat":9884,"Kellon":9885,"Ġpredict":9886,"Ġcollecting":9887,"Ġdemonstrating":9888,"Katia":9889,"ĠâĪľ-":9890,"Replace":9891,"...|||":9892,"coordinate":9893,"Ġimpression":9894,"Bingo":9895,"Join":9896,"Messio":9897,"Ġdandy":9898,"Ġbrightness":9899,"Ġreceive":9900,"ĠKristin":9901,"(-":9902,"Kill":9903,"Monday":9904,"].|||.|||":9905,".|||.\"|||":9906,"reston":9907,"?|||-|||":9908,"stud":9909,"Ġmeal":9910,"Ġ.|||?|||":9911,"Ġ.|||âĢĿ|||":9912,"-|||.|||-":9913,"Ġthroughout":9914,"Ġafterward":9915,"ĠPreston":9916,"Ġinternal":9917,",|||.|||":9918,"Ġfilling":9919,"Ġdetermining":9920,"Clap":9921,"Ġvolunteering":9922,"Annie":9923,"guys":9924,"Ġblinds":9925,"ĠRachel":9926,"students":9927,"Pass":9928,"serv":9929,"Ġhate":9930,"?|||.|||.|||":9931,"ania":9932,"Shania":9933,"?|||.|||?|||":9934,"mett":9935,"Ġobserv":9936,"Ġcaptains":9937,"ĠEmmett":9938,"Ġobservation":9939,"-?":9940,"Bryce":9941,"Ġcrab":9942,"Ġ.|||.":9943,"Ġgrant":9944,"ovel":9945,"shovel":9946,"train":9947,"Grid":9948,"Ġorganize":9949,"Ġalgebraically":9950,"\"?":9951,"%?":9952,"97":9953,"Jay":9954,"Ton":9955,"aple":9956,"wrap":9957,"?|||?":9958,"assey":9959,"Ġstaple":9960,"--|||.":9961,"Ġbully":9962,"ĠKassey":9963,"Ġbreakdown":9964,"Ġwrapped":9965,"grid":9966,"''.":9967,"Ġbubblewrap":9968,"Tonight":9969,"=?":9970,"Crab":9971,"Nix":9972,"|||.":9973,"atter":9974,"Ġground":9975,"Ġbatter":9976,"Agreed":9977,"ferably":9978,"Ġpens":9979,"Preferably":9980,"Calculator":9981,"Nixon":9982,"Ġbattery":9983},"merges":["| |","Ġ t","|| |","Ġt h","o u",". |||","Ġ a","i n","r e","Ġ w","a t","Ġ s","Ġth e","Ġ y","Ġy ou","Ġ o","Ġ i","Ġt o","e r","in g","Ġ d","Ġ g","Ġ h","n d","Ġ b","Ġ m","e s","Ġ f","? |||","Ġ p","Ġ c","v e","o n","a n","l e","Ġth at","Ġa nd","Ġ n","Ġ I","h at","Ġg o","l l","o w","o r","i s","Ġi t","' s","s e","t h","Ġo n","Ġi s","e n","Ġh a","t i","a y","Ġo f","Ġd o","Ġ l","i g","a r","Ġw e","Ġ e","Ġb e","i d","a c","s t","o m","T h","Ġth is","a l","Ġ in","Ġha ve","e re","ig h","Ġ 1","Ġ r","Ġ u","k e","l d","igh t","Ġgo ing","Ġw hat","' re","Ġyou r","Ġon e","ou ld","e d","i t","Ġw h","e t","ou t","o t","i c","Ġa n","q u","Y ou","Ġw i","Ġ re","Ġa re","Ġr ight","ti on","Ġs o","u t","Ġ j","a s","w o","om e","W hat","Ġs h","Ġn e","v er","Ġs t","u m","p l","Ġf or","a d","' t","Ġd id","u st","Ġwi th","Ġt wo","Ġc an","e c","ou r","Ġ k","Y es","b er","o o","Ġa b","Ġm e","re e","W e","k ay","a m","' m","i r","r o","Ġu p","Ġj ust","i ve","u l","ar t","i m","Ġh ere","Ġk n","Ġn ot","a u","Ġa t","k ing","Ġf r","Ġn um","i ke","Ġg et","Ġw ould","Ġthe n","Ġi f","an t","Ġ 2","Ġab out","Ġkn ow","Ġh ow","I t","Ġl ike","c e","au se","b le","i on","Ġnum ber","O kay","a ll","Ġs e","o d","Ġth in","Ġe x","Ġ 3","a ke","Ġo r","Ġd on","Ġd i","Ġthe re","Ġ out","Ġp ro","Ġs ome","l y","th er","Ġgo t","T hat","Ġw ant","Ġw or","en t","Th e","Ġth ree","ac t","Ġa s","Ġbe c","0 0","I f","a re","N o","Ġ qu","o se","Ġ le","at ion","Ġbec ause","oo k","all y","s w","ul ti","r a","Ġw as","Ġan sw","Ġh e","u re","A ll","Ġansw er","W h","Ġm y","Ġne ed","- -","Ġt im","Ġm ulti","c t","t er","ac k","g e","Ġse e","Ġe qu","c h","Ġthin k","Ġa ll","Ġp art","o re","in d","p le","Ġmulti pl","r ou","Ġb ut","Ġwh o","a nd","e ll","n t","Ġthe y","Ġ x","Ġf our","am e","Ġb y","ac tion","u s","a se","it e","in e","Ġp l","Ġw r","Ġ 4","Ġf act","Ġt r","u r","d d","H ow","Ġth ing","Ġs ay","Ġfr action","at e","ver y","Ġ X","th ing","a in","Ġo ver","Ġl ook","Ġth ose","S o","Ġu se","ir st","' ve","o s","Ġthe m","Ġ .|||","Ġw ay","Th is","Ġ 5","D o","ble m","e p","Ġfact or","Ġpro blem","Ġc h","Ġm ake","f f","Ġwh en","Ġc ould","Ġsh ould","Ġf irst","Th en","Ġg u","g h","es s","Ġwho le","Ġwor k","Ġtim es","Ġb o","o l","u n","Ġp a","n er","i e","Ġn ow","Ġdo es","Ġdi v","Ġs ame","ar d","Ġt al","Ġmultipl y","Ġa dd","e m","Ġm at","id e","od y","b ody","Ġdo ing","Ġth an","p h","in t","es tion","Ġc l","Ġs a","' ll","Ġthe se","ac h","Ġan y","Ġc om","Ġp ut","Ġ A","e l","Ġgu y","Ġ our","an g","Ġex pl","Ġequ al","Ġ z","Ġqu estion","Ġpart ner","Ġb ack","N ow","Ġa l","at or","Ġm an","Ġwi ll","Ġ1 0","Ġman y","Ġ 6","it t","Ġst art","Ġz er","Ġo ther","ve n","u e","Ġ v","Ġf ind","Ġdi ff","u b","Ġf ive","L et","on e","Ġsome thing","a b","ow n","Ġin t","p p","Ġc ome","i x","Ġm in","Ġdiff ere","Ġwr ite","Ġm ore","ic h","Ġp er","Ġp o","Ġc on","qu are","d ay","Ġsa id","at ive","x t","rou p","i z","p t","Ġha s","g ative","Ġwe re","Ġdon e","Ġg roup","Ġd own","Th ere","le ase","i f","Ġs quare","l f","Ġsh ow","Ġt a","nd er","1 0","Ġn o","es t","Ġg ive","Ġme an","th s","I s","Ġt ell","Ġt ake","ur n","Ġre ally","u ch","Ġfr om","s on","Ġguy s","Ġexpl ain","Ġzer o","Ġl itt","Ġu s","Ġlitt le","Ġe very","ic k","Ġf ig","Ġne gative","nd s","Ġthin king","O h","Ġm uch","p er","Ġmat h","O n","Wh en","Ġu nder","Ġint o","Ġ 8","Ġwh y","Ġa g","an k","Ġfig ure","Ġtr y","Ġ C","o c","Ġ B","r y","Ġ 7","ra ph","ce pt","Ġdiffere nt","Ġwh ere","Ġst r","w ay","Ġne xt","Ġle t","Ġtim e","Ġs ure","Ġwh ich","e ad","p e","Th ank","Ġe ach","Ġs ix","Ġha d","Ġ -","Ġso l","Ġgo od","C an","Ġp lease","Ġre ad","Ġt e","c tion","Ġp r","Ġ 9","i ble","ti c","Ġr o","ct u","ou nd","Ġst ep","Ġt urn","Ġa m","Ġg raph","Ġp ar","Ġnumber s","ti ce","Ġfor m","Ġp i","S h","ou gh","is t","l p","Ġhe lp","Ġ1 2","Ġo kay","a k","ke d","st and","Ġc o","l es","Ġl oo","The y","Ġha lf","- |||","i v","Ġtal k","em ber","Ġm o","Ġsh are","Ġpi ec","Ġs ec","â Ģ","Ġ J","Ġunder stand","Ġpo int","Ġ3 0","ec ause","Ġex am","i es","Ġ 00","Ġa ctu","ic e","ic al","a st","Ġbo th","on g","âĢ Ļ","en se","Ġmin ut","ter cept","ac e","1 2","Ġs ense","Ġproblem s","-- |||","Ġ [","ra w","Ġequ ation","om in","ang le","B ecause","Ġ \"","Ġto day","Ġsh e","rou gh","Ġl ine","Ġu n","Ġpa ge","ti ve","Ġc al","Ġd en","omin ator","Ġfr ie","Ġf e","Ġden ominator","ti m","I n","A n","Ġloo king","Ġdiv id","Ġof f","Ġth rough","Ġdid n","Ġ2 0","as s","Ġfraction s","ell ig","Ġl ess","un int","ellig ible","unint elligible","Ġactu ally","Ġro ot","G o","Ġm od","Ġd ec","Ġe ight","ar n","H ere","Ġpl us","Ġst u","ec t","Ġsec o","or t","Ġr ad","Ġon ly","ge ther","On e","Ġ M","ate g","Ġl ot","Ġre m","We ll","Do es","re at","Ġare a","Ġto gether","Ġthing s","Ġb l","t e","le y","Ġth ough","Ġd raw","Ġv al","Ġe ven","a g","a it","Ġstr ateg","R ight","b e","e o","t r","Ġs p","Ġta ble","i a","o p","re ct","Ġwor d","ir c","Ġ $","Ġexam ple","Ġm ay","o ther","Ġf un","s o","Ġex p","Ġc irc","Ġy es","or rect","Ġto o","Ġ Y","eo ple","Ġp os","in tercept","Ġs ub","Ġab le","i p","H e","D id","Ġi d","Ġ es","i l","Ġgo es","Ġsol ve","Ġre ct","Ġpa per","Ġs ide","Ġle arn","Ġtal king","Ġe nd","Ġmean s","Ġm ight","Ġmultiply ing","a ve","Ġrad ical","le d","Ġevery body","Ġequal s","Ġthe ir","Ġquestion s","Ġ ke","Ġp eople","is e","Ġanswer s","i tive","Ġan other","Ġj o","er s","Ġd is","k s","ic ation","re ad","Ġag ree","t y","' d","ent s","Ġsay s","Ġ1 5","Ġdoes n","Ġdiv ide","Ġb u","Wh y","Ġpiec es","Ġe as","h ead","ard s","v ing","t ing","Ġf in","at ic","Ġha pp","Ġval ue","Ġc orrect","Ġseco nd","Ġa head","u g","Ġs im","Ġc ub","f t","Ġbe t","Ġte am","Ġ very","a ge","Ġes tim","f ore","is h","Ġ K","Â ²","er m","Ġ1 8","Ġr ound","ad r","ad e","Ġsub tr","i ed","Ġle ft","u ll","Ġfun ction","S t","Ġse ven","c ess","o ld","A re","Ġs u","Ġhapp en","ec k","Wh o","T wo","Ġto p","Ġd e","Ġan g","Ġqu adr","Ġper son","Ġpos itive","Ġpr ac","Ġrect angle","Th ree","Ġmo ve","Ġp re","Ġmultipl ication","Ġb ig","ak es","Wh ere","im al","Ġwor king","u ct","Ġminut es","An y","Ġc ou","Ġ +","n al","Ġg r","Ġfrie nds","Ġg reat","J ust","our nal","Ġi m","Ġal so","Ġdec imal","Ġ R","Ġe l","Ġt est","Ġjo b","Ġbe fore","way s","ti ll","re d","Ġ1 00","Ġk ind","Ġsubtr act","Ġdivid ed","al k","Ġqu ick","z z","ow er","Ġl ast","Ġt erm","em ember","or ry","Ġag ain","\" |||","Ġsay ing","f ter","Ġke ep","Ġs till","Ġfin ish","Ġs y","is ion","Ġt en","Ġstu d","read y","Ġel se","Ġas k","Ġfactor s","Ġch an","Ġj ournal","R emember","Ġal ready","in k","Ġp ic","Ġ1 6","Ġun it","E very","e w","rou nd","Ġstrateg y","Ġ S","Ġm a","ic ally","Ġpro d","Ġpl ace","p re","n ce","if y","Ġst and","F r","le nt","ir d","Ġmin us","Ġmod el","F or","Ġ =","Ã ·","Ġus ing","Ġquadr atic","Ġpl ay","Ġcirc le","L ook","Ġdiv ision","i al","Ġs et","iz e","Ġrem ember","Ġ .","Ġc ol","Ġn ine","Ġkn ew","Ġor d","Ġl ong","Ġf l","Ġp ower","w e","Ġb it","Ġ5 0","Ġprod uct","Ġa round","Ġl ist","Ġch eck","Ġ 0","Ġm akes","Ġb as","Ġto t","Ġprac tice","er ator","c ul","Ġnum erator","ul ar","t ure","Ġpic ture","Ġcom p","ab el","Ġcal cul","Ġtry ing","Ġfe el","Ġcom m","Ġal ways","um b","Ġa way","f ect","E x","pl y","Ġid e","Ġs it","Ġbe ing","Ġim p","Ġa fter","You r","Ġto ol","Ġre al","Ġre v","Ġany thing","S ome","g er","s ion","Ġas king","F our","ar ing","Ġang le","Ġcl ass","Ġha nd",".||| .|||","Ġc ar","i ll","Ġthough t","y s","Sh e","Ġpl ug","Ġ ver","Ġb ase","r ite","Ġre c","se nt","ab ly","Ġa c","Ġs m","b ably","ou s","ly n","u nd","Ġbe en","o ve","ĠC h","a p","om ial","Ġgroup s","Ġb re","Ġex act","C h","M y","Ġwe ll","Ġmat ch","ro s","Ġbo ard","k it","Ġbl ue","i er","t en","und red","Ġ ?|||","Ġst op","oo d","ack son","Ġw ait","en ti","w n","Ġcalcul ator","Ġth ird","Ġs c","ose d","Ġc ase","ang ent","S e","Ġh undred","Ġdo t","Ġbo x","ort ant","Ġmay be","Ġminut e","se lf","Ġre pre","Ġimp ortant","Ġrepre sent","or m","Ġestim ate","Ġuse d","Ġpar ti","o g","Ġ G","Ġany body","1 00","Ġfactor ing","Ġtool kit","n th","Ġdiffere nce","Ġd es","ar l","Th ink","Ġs orry","s h","Ġide a","2 0","Ġt y","Ġcl os","Ġdis c","we en","F ive","at ed","Ġ1 3","Ġd ay","Ġstart ed","ar k","pp osed","Sh ow","Ġtr i","Ġbet ween","intercept s","Ġs pl","Ġno tice","b o","t ty","w or","at h","Ġsu pposed","a lent","iv alent","Ġc all","ig n","Ġread y","Ġcomm on","Ġhe ight","ing s","Ġpiec e","Ġequ ivalent","Ġy et","Ġwr ong","Ġstud ents","oo l","i ther","Ġo p","Ġspl it","Ġcou ple","f ul","Ġadd ing","oc k","Ï Ģ","Ġ H","v es","on t","us se","Ġsquare s","iz z","Ġh er","Ġfour th","Ġcon f","Ġpoint s","D on","Ġ E","es e","id es","Ġta king","ter day",". \"|||","Ġ T","Ġpro cess","Ġcom ple","Ġzer os","Ġbre ak","Ġp at","id d","Ġstep s","Ġsm all","Ġre st","Ġord er","r d","ter n","Ġlearn ing","Ġchan ge","3 0","G ood","Ġper fect","n g","Ġget ting","e ver","Ġpro bably","Ġm ade","Ġon es","Ġin f","M ay","Ġ (","re ction","ation s","Ġthan k","Ġcon ver","Ġdivid ing","Ġbu zz","Ġde g","Ġsy m","ore d","Ġfrie nd","Ġgreat er","Ġword s","or d","Ġtot al","Ġs ides","Ġpre tty","5 0","Ġ2 00","Every body","Ġh ome","Ġf if","are st","1 6","r i","e ar","Ġf it","Ġ1 4","lyn omial","M ake","in ce","er ase","Ġ4 0","Ġgu ess","Ġhe ad","Ġcal led","Ġr a","Ġma king","P lease","Ġd r","it y","Ġdi rection","Ġpo lynomial","Ġa p","Ġs um","an ce","it ing","Ġeas y","u se","s ide","ot e","] .|||","Ġo wn","W ait","Ġs ign","Ġsh aring","Ġsim pl","Ġtri angle","N e","Ġha rd","Ġne arest","Ġ6 0","i ley","Ġbas ically","le m","en c","N ot","Ġb ook","Ġcl ose","Ġp ay","Ġ2 4","May be","Ġw ent","Ġfind ing","Ġpat tern","Ġtal ked","Ġbig ger","Ġwr ote","r ing","Ġre w","ep e","Ġp ick","ad ies","Ġse at","Ġsome one","Ġyes terday","a ble","Ġless on","Ġeas ier","Ġmulti ple","Ġe ither","Ġle ng",") .|||","Ġexp on","Ġstrateg ies","Ġlist en","x is","Ġs ine","Ġc os","Ġco st","re en","ve l","Ġme as","u d","Ġpa ir","Ġ D","Ġd at","en ce","Ġwh ite","ti es","s ing","Ġin d","1 5","ch es","g et","Ġlook s","Ġten ths","Ġhe ard","Ġ P","ent lem","ere d","Ġdat a","Th ese","Ġt angent","tion s","Ġas ked","Ġfigure d","r is","Ġs k","Ġ1 7","Ġleng th","entlem en","Ġwhite bo","Ġid enti","wor k","A l","S ix","i ent","Ġwork s","Ġtoo k","i le","Ġh is","an ation","ti l","ke t","Ġte ach","St and","ou nt","T o","v i","Ġn ame","ut e","P er","Ġtr ue","one y","Ġsquare d","Ġhome work","i les","Ġ L","Ġh our","Ġc le","Ġin st","Ġle ave","ol ate","Ġmat ter","Ġbl oc","Ġ N","Ġb ar","Ġ2 5","Ġexact ly","Ġunderstand ing","i th","m ent","umb s","Ġs pe","Ġp ull","Ġin c","Ġsp ec","Ġterm s","Ġbloc ks","Ġhave n","Ġexpl anation","R ead","Ġp ack","Ġ1 1","Ġne w","Ġmultipl ied","Ġg entlemen","id s","Ġstu ff","Ġg iv","Ġm is","og n","2 4","Ġh igh","Ġm ark","Ġsome body","Ġwant ed","Ġway s","Ġmod ify","orm ation","Ġclos er","i ly","Ġwr iting","Ġch ang","Ġun til","Ġf ound","Ġmeas ure","A nd","id th","Ġqu iz","Ġget s","enc il","b ook","r ow","Ġm oney","Ġrec ogn","2 00","a h","Ġ en","?||| .|||","Ġre d","Ġadd ed","Ġhappen s","Ġdisc us","Ġcomple te","Ġinf ormation","Ġconver s","W ould","a xis","Ġp are","ar ley","et er","Ġsh a","Ġpart s","usse ll","Q u","Ġre as","Ġreas on","Ġp encil","a ir","w h","Ġy ear","er o","ch ool","Ġshe et","Ġyour s","Ġfe w","Ġs l","Ġlearn ed","Ġquick ly","Ġrew rite","ra nd","epe nd","Ġneed s","Ġhe ar","c es","w ise","Ġh im","ig in","Th ose","as h","Ġ5 6","itt en","iz ing","Ġdecimal s","idd le","Ġsha pe","Ġ erase",".||| -","Ġfr ont","at ch","tic ular","Ġcl ap","epend ent","Ġwith out","k at",".||| [","Ġw alk","er y","er kat","Ġp ur","Ġdo ll","Ġin ches","l ves","Ġm iddle","Ġpl ot","Ġtr ick","Ġhundred ths","Ġcle ar","Ġf ine","Ġevery one","Ġpar ticular","Ġmo st","E ight","i an","re es","Ġb ring","Ġis n","Ġ1 9","Ġme erkat","Ġat ten","Ġor igin","Wh ich","ind er","Ġdoll ar","Ġatten tion","N ice","Ġc ut","ti an","Ġre pe","Ġpro per","Ġth umbs","m et","t ra","Ġw idth","Ġop en","Ġn ice","Ġl oc","Ġs ent","No tice","ĠM r","pl es","Ġspec if","O r","re s","Ġg reen","Ġit self","os h","ff ic","Ġcon n","Ġcol or","Ġsym met","Ġd ist","Ġcomp are","A dd","at ing","Ġb ot","Ġsol ving","Ġcub e","Ġbot t","B e","He y","r am","Ġfinish ed","M ulti","ce l","So ph","Ġform ul","Ġs ur","Ġex tra","Ġcom es","Ġexam ples","Ġseco nds","Se e","H old","J ackson","P art","i tion","m or","n ing","u es","Ġs chool","Ġm on","or ies","Ġstart ing","Ġexplain ing","Ġstr ings","Ġproduct s","ou n","le n","im eter","Ġtell ing","ord in","Ġcos ine","Ġle vel","Ġdis ag","Ġbet ter","rand on","Ġ4 5","F irst","Ġha ving","Soph ia","Ġwe e","Ġparti al","C ome","a inder","u zz","Ġ Ã·","Ġa r","Ġto ld","Ġm ist","Ġm iles","au gh","Ġ2 2","Ġ3 6","Ġfact ored","Ġco ordin","Ġrem ainder","ffic ient","B ut","f ull","n ot","Ġo dd","Ġbe h","Ġcub ic","ris tian","full y","Ġexpon ent","ra in","ĠJ ackson","use d","Ġdraw ing","Ġchan ce","ir l","Ġwhitebo ard","Ġformul a","Ġl ove","f in","u c","w ards","Ġc ame","is on","Ġbe l","Ġ3 00","tic al","tim es","Ġty pe","Ġdirection s","Ġgiv es","y es","â Ī","Ġi ce","Ġin tercept","Ġwh ile","Ġper imeter","Ġdisag ree","L ike","Ġo b","Ġturn ing","xt book","Ġparti tion","Ġsent ence","um ber","Ġgive n","is ed","Ġcirc les","G reat","W rite","Ġt w","at es","ot s","Ġk ids","Ġwr itten","Ġsa w","Ġsol u","te x","Ġbu y","Ġver tex","Ġdeg ree","wh ere","b y","o pe","ic ro","Ġcub es","abel le","icro ph","P l","i et","ation al","W ith","Ġ W","Ġshow ing","i b","1 1","2 8","? \"|||","V ery","b or","m ar","Ġg l","Ġg ave","ig it","ac es","Ġre s","art er","Ġle ast","Ġcon st","oc ab","Ġsit u","Ġty p","Ġdr ive","Ġsimpl ify","Ġpur ple","t a","Ġ ÏĢ","Ġle ad","nth es","Ġra ise","Ġpare nthes","Ġin ter","Ġbox es","ang les","Ġconf used","L adies","Ġro om","Ġg irl","Ġwould n","P ut","Ġshould n","Ġbo ys","Ġspecif ic","B uzz","Ġ You","Ġo ld","Ġh old","an s","Ġha nds","igh bor","ot te","Ġne ighbor","Ġcom ing","Ġexp and","Ġset s","ular y","arl otte","Ġen ough","ocab ulary","2 7","T urn","u p","Ġg ame","an ge","Ġsh ort","Ġcom b","Ġpartner s","Ġsu c","Ġm ess","A s","ie w","Ġind ependent","Ġs n","ust in","C ould","G et","H ave","r ay","Ġs ince","Ġd ro","Ġf ar","Ġc are","ĠI s","ra se","Thank s","Ġfe et","Ġthird s","ock wise","Ġinst ead","Ġconvers ation","Ġmist ake","Ġ What","re w","Ġs w","Ġon ce","Ġha lves","Ġst ra","Ġcan not","Ġexpl or","Ġta k","ros s","ĠH arley","Ġstra ight","in es","Ġ2 7","Ġbott om","T e","Ġdes k","N umber","c ent","Ġf o","Ġevery thing","2 5","Ġre f","Ġte xtbook","f y","Ġp h","Ġst ay","Ġam ount","G ive","u al","Ġsur f","Ġd ry","Ġwor ked","Ġv ocabulary","Ġcon cept","Ġang les","oun ces","a iley","h n","o st","Ġa pp","Ġthe ta","it ch","Ġsmall er","Ġfif th","icroph one","Ġsuc cess","Ġqu iet",", \"","Ġcon t","Ġfl ip","u le","at er","Ġlisten ing","id ay","S orry","g in","Ġgr id","1 8","t o","Ġ F","Ġc re","Ġj u","ro d","Ġwant s","Ġneed ed","Ġno tic","Ġcou nt","Ġgr ade","Ġcar r","Ġexpand ed","G u","Ġo pp","Ġe igh","os ite","Ġch air","ĠJ ack","Ġap ply","Ġas s","Ġsk ill","i am","ur ing","Ġany one","Ġrev iew",", |||","4 0","Ġf ree","Ġf old","or y","am es","g est","Ġbe gin","Ġr id","Ex pl","Multi ply","J ack","T ry","Ġmis sing","Ġrecogn ize","1 9","3 6","e x","re as","ere st","Ġpro ve","00 0","Ġtell s","Ġloo ked","Ġexp res","Ġstud ent","Ġtot ally","Ġdeg rees","Ġhour s","Ġcarr ots","n abelle","Ġ âĪ","Ġs tic","Ġc ards","Ne gative","Gu ys","Ġwhat ever","Ġ9 0","Ġmess age","Ġb rain","n e","w es","Ġr ule","Ġout side","Ġper cent","Fr ie","wes ome","c ros","Ġ Fr","Ġl abel","st alk","cros stalk","Ġw atch","ar get","P age","R ound","T ell","g es","Î ¸","Ġ Î¸","Ġy ell","Ġl ight","om p","Ġin side","au d","ell a","Ġtr ack","Ġ6 00","Ġv ar","Ġ12 0","Ġline ar","Ġval ues","Ġde fin","Any body","Part ner","Ġcoordin ate","Ġparenthes es","Ġju ice","1 4","Ġa d","Ġhappen ing","Ġac ti","Ġsw itch","Ġopp osite","itt ing","Ġequation s","Frie nds","a v","Ġv is","ab les","2 2","Ġgirl s","c ome","Ġf ull","Ġrepresent s","Ġsurf ace","a ph","e fficient","r ight","in aud","Ġs ir","Ġd ou","Ġb ad","Ġm ind","Ġr ational","am ple","Ġqu ite","Ġshould er","Ġint erest","Ġshow s","Ġmath em","Ġco p","iv ing","Ġexp ect","Ġround ed","Ġsubtract ing","Ġcar s","Ġsum mar","Read y","Ġmodify ing","Ġchang ed","Ġsymmet ry","Ġnotic ed","inaud ible","i or","Ġfour ths","un ior","ous and","Ġrepe at","R e","r it","y ram","Ġ ,","Ġpo st","um e","Ġord ered","ll ow","od ay","o ice","Ġwait ing","Ġdes ks","Ġactu al","R ussell","T alk","b ol","r ic","v al","Ġ *","Ġ Oh","er t","Ġb ro","Ġp izz","Ġab ove","Ġwill ing","Ġ7 0","Ġpar aph","Ġsp ot","St op","Ġstand ard","Ġclos est","Ġfif ths","Ġidenti ty","Ġpack age","Ġconst ant","ray son","Ġeigh ths","Ġd rew","ec tive","Ġdenominator s","Ġjo in","sh ley","ousand ths","ou nds","Ġl ines","Ġ8 0","Ġmo ving","Se ven","B randon","Ġrect angles","T oday","l come","Ġfo llow","ra b","Ġv ol","Ġbook s","ĠFr iday","n es","Ġm ine","Ġp ass","ed nes","Expl ain","ednes day","o nd","A m","d ge","e tic","i ol","t s","Â ³","Ġs ing","Ġto mor","Ġd igit","om es","Ġyour self","Ġcan cel","Ġch ec","Ġcould n","ie ve","ctu ally","Ġco efficient","Ġsp ent","Ġpos s","Ġke y","Ġsim ply","Ġround ing","Any one","Ġsy nth","Ġsym bol","Ġmeerkat s","Ġmon ths","Ġbel ieve","Ġsitu ation","Ġyell ow","Ġdou ble","Ġinterest ing","Ġtomor row","Ġsynth etic","S ince","a king","re t","Ġm om","Ġf ace","Ġe yes","Ġst ore","Sh ould","Ġsp ace","Ġs ize","Ġp yram","is m","Ġl adies","st on","Ġfor get","Ġpr ism","ag es","Ġac c","a pt","Ġs itting","ir iam","On ce","Ġcomp ut","Ġst ory","1 7","O ur","is ter","Every one","6 0","B o","W ow","W ay","Z ero","Ġ --|||","Ġg en","Ġb est","Ġm ar","is ing","se d","th an","en sion","Ġl ar","Ġr ot","ec tion","ul ian","im ension","Ġse en","Ġbec omes","Ġqu arter","Ġall ow","Ġadd ition","Ġcl ip","Ġv iol","Ġno thing","Ġpr om","Ġpar king","Ġhelp s","ĠJ osh","Ġcal ories","il ar","Ġsim ple","Ġprac tic","Ġplay er","Ġrev ise","Ch ristian","Ġspe nd","Ġdiscus s","Ġproper ty","Ġexpres sion","Ġviol in","1 3","P ro","a le","o e","Ġth ousandths","ĠR ussell","ud e","Ġob j","Ġexplor ation","Ġsuccess ful","Ġch oo","Per son","Ġmark er","T im","Ġc apt","an e","arl ie","Per fect","Ġco ver","Ġgr ad","T ake","Ġwee k","A t","K e","T en","T able","p on","p et","r u","Ġ V","Ġw al","Ġb izz","Ġf oc","Ġp ie","ll a","um n","oo per","Ġat e","Ġsome where","Ġwas n","ind ow","Ġtr ans","Ġch oc","Ġput ting","Ġsim ilar","Ġcar pet","ous ly","ri b","Qu estion","Ġconn ection","Ġintercept s","Ġcre ate","rod y","Ġstic k","imension al","Ġchoc olate","a i","i od","Ġwe lcome","ac ket","ĠA n","Ġcol ored","Ġtrick y","Ġbegin ning","um p","ĠB r","Fr action","Ġpyram id","o or","oo f","Ġpair s","Ġexplain ed","Ġvis ual","Ġne ver","Ġfin al","c ut","Ġt arget","on es","is s","Ġshort cut","0 1","4 6","E ach","O f","a el","c i","c k","l ight","l ockwise","o b","Ġs ort","Ġc our","ĠI an","Ġha ll","Ġe at","al le","Ġre g","Ġj us","Ġsh ad","Ġtr ied","ich ael","if ied","Is olate","Ġ7 5","Ġpr ice","Ġ18 0","St art","Ġmodel s","Some body","Some times","Ġap pl","Ġdiscus sion","Ġloc ation","Ġsolu tion","reas ing","Ġcop y","M e","N ine","U se","y ou","Ġ ent","Ġh ope","Ġc am","en tion","dd y","Ġbo ards","Ġper iod","Ġcomb in","A M","Ġt all","im um","Ġsee ing","Ġpack ages","AM P","Ġg rab","Ġpr oof","Fr om","Ġfl oor","H i","i o","Ġc ard","Ġwh e","Ġrev ised","ar y","ou d","4 5","Ġturn s",") ,","8 0","A ctually","F ind","M icrophone","P os","f it","l ess","Ġ Z","Ġs ister","Ġy ards","Ġto wards","se n","ar ston","ro om","Ġnot e","Ġcl ock","Ġback wards","Ġgroup ing","Ġgraph ing","Ġten s","Ġten th","Ġma x","Ġlong er","Ġver tical","Ġop tion","Ne xt","Ġinc l","Ġorigin al","Ġconn ect","Ġtw ice","Ġgl ass","val ue","Ġparaph rase","] |||","] ?|||","r ant","Ġo h","Ġwor ld","Ġradical s","Ġestim ation","Ġquadr ant","Ġcost s","Ġtak en","Ġobj ective","Ġf am","ach er","Ġturn ed","Ġpicture s","A ustin","Ġcapt ain","s ti","Ġ Sophia","Ġbe ep","ĠW ednesday","sti t","Ġm id","?||| -","Ġn ames","pp ed","st ead","ri be","ĠMr s","Ġsn ack","\" .|||","2 6","E ven","S ame","S ub","S quare","a vi","h ow","n y","o ic","u ally","w en","Ġ O","Ġ ounces","Ġt ra","at ical","Ġd augh","Ġb ag","Ġf ur","Ġc ents","Ġr ange","ic ah","Ġst ar","Ġ2 8","Ġ3 2","Ġsome times","act or","Ġ4 10","Ġcl ue","Ġsec tion","ĠJ ulian","Ġdec omp","te en","Ġcorrect ly","Ġcol umn","Ġac ross","ĠCh arlotte","Ġhigh light","Ġbeh avi","Ġdro ve","Ġvar i","Ġmathem atical","Ġpizz a","Ġprom pt","Ġfoc us","oic es","Ġdaugh ter","Ġfur ther","Ġbehavi or","j ust","th od","qu al","Ġre l","Ġme thod","Ġint ention","Ġ9 9","usse l","Ġteach er","Ġlead er","Ġl ate","Ġmin imum","Ġloc al","Pl us","Ġquiet ly","5 6","Ġh it","ĠM iriam","Ġra ised","ĠG od","Ġwhe ther","stit ute","Ġb read","Ġhappen ed","av or","A g","Ġf ing","ĠI t","Ġl oud","Ġ4 00","In stead","Ġseat s","Ġm or","A b","B y","B ase","J osh","M r","M ia","R a","S ay","b ack","l i","o es","s ol","y l","y nth","Ġ Yes","Ġ We","Ġ No","Ġ This","Ġt ie","ou se","Ġa wesome","Ġw on","Ġy arn","Ġh ouse","Ġf aces","Ġc ent","Ġc ook","Ġc ass","ĠI f","Ġit s","Ġdo or","it ed","ot angent","ic and","Ġme mor","ro c","Ġpro fit","Ġwor ry","us h","Ġ4 50","un ch","ab e","ab ella","ix ed","if e","Ġlet ter","Ġpar ag","Ġform at","Ġroot s","Ġdec ide","te nd","Ġeven ly","op s","Ġend ed","Ġplay ing","Ch arlotte","idd en","Ġind ex","Ġsk ip","vi ously","Ġrecogn izing","ero le","Ġar g","Ġtw el","Ġsolu tions","Ġtyp es","Ġskill s","Ġsummar ize","ert ain","Ġgen er","Pro bably","Ke ep","Question s","Ġcour se","Pos itive","Ra ise","ynth ia","Ġcass erole","Ġparag raph","I an","K ay","S ure","m y","o ti","er a","id ed","ec hn","are d","Ġcl ub","ab by","Ġteam s","Ġcol le","ĠCh ristian","Ġpattern s","Ġproper ties","Ġbeh ind","ĠAn nabelle","Ġcam era","C o","Ġd et","Ġd ue","Ġcomput er","H ell","o f","Hell o","Ġp it","Ġread ing","Ġrem ind","Ġspe ed","Ġpit a","th e","Ġch art","cel lent","?||| (","-- ?|||","Ġpaper s","l ine","Ġf ast","ite ly","ug g","Ġinf in","Al right","Ġmor ning","0 8","3 4","3 00","D iv","H arley","R iley","i ld","l or","o hn",".||| .","Ġg one","Ġb ow","Ġb urn","Ġp ink","Ġc ur","Ġdo m","Ġe dge","id ent","al f","al len","Ġr ul","Ġare n","as es","Ġst ories","Ġnot es","Ġfr u","Ġpa id","ĠC ooper","ĠB randon","Ġrad icand","Ġjournal s","Ġunit s","Ġide as","Ġdot s","wor ld","Ġcomple x","Ġdr iving","Ġpolynomial s","Ġwhitebo ards","Ġconvers ations","uc k","Ġindependent ly","Ġcare ful","Ġrot ation","Ġpractic ing","Ġhall way","Ġvari ables","Ag ain","sol ute","A fter","m ost","y le","ou nce","ar ret","Ġe ver","Ġqu oti","ĠA shley","Ġ6 4","Ġfeel ing","bo ard","Ġ Th","Ġf ill","Ġtwo s","Ġdi ag","Ġsee m","Ġmultipl es","Ġ5 4","ĠM ath","Te acher","Ġchoo se","Ġexpon ents","Tim es","Ġstand ing","Ġcalculator s","||| ,","Ġf avor","Ġgot ten","ist en","vi ties","Ġacti vities","Ġidenti fy","l ing","Ġpl an","ate ly","0 6","0 7","0 9","C on","E than","F l","F actor","G ot","L ast","M s","M in","M ichael","U p","a il","c ant","d ges","g ot","l in","m ily","n a","p s","r ical","w hat","y a","Ġ ?","Ġ enti","in c","re y","Ġthe ore","Ġh or","Ġh idden","Ġb r","Ġb ounces","Ġm ixed","Ġc ose","Ġc ases","Ġon to","ti al","ti fy","Ġe m","Ġbe ll","Th umb","Ġin v","Ġr and","Ġsh ade","um ent","oo king","Ġab solute","Ġ3 4","Ġ4 2","ĠX s","ol og","ol ated","el len","Ġ10 2","Is abel","Ġfig uring","ction s","Ġcirc led","Ġ15 0","atic ally","Ġde al","ĠR e","Ġbas ic","Ex cellent","Ġplug g","ĠG rayson","ĠE lla","ĠP AMP","Ġinst ru","Ġinc reasing","ash a","Ġclear ly","Ġdollar s","Ġrepe ated","Ġsymmet rical","Ġdist rib","Ġbel ow","Ġbuy ing","Ġlead ing","Ġinter pre","Ġcomb ine","Ġcare fully","Ġtak es","Ġdefin itely","Ġsing le","Ġdigit s","Ġdecomp ose","Ġcook ies","Ġdom ain","Ġfru it","Ġenti re","Ġtheore m","Ġcose cant","Ġrand om","o ot","s us","w ich","Ġs and","ĠJ unior","ĠR iley","Ġmeasure ment","Ġsand wich","H a","Ġf ix","Ġso on","ent al","Ġ4 8","il i","Ġdet erm","0 5","Ġta x","Ġrec ord","ĠCh arlie","Ġvol ume","v ity","Ġhelp ful","Ġsub stitute","Ġbase d","ne y","Ġacti vity","d own","Ġ |||","Ġw ra","Ġd ark","iz ed","ten ths","f er","Ã Ĺ","ĠC ol","Ġfing ers","Ġstr ugg","Ġcont in","2 3","5 2","9 0","B r","B izz","B less","K ind","O b","O ver","O ther","W or","d en","f orm","i ence","l ers","s day","t on","t hat","t ed","Ġ Do","Ġ Let","Ġt umb","Ġt augh","Ġth rees","in omial","re sh","Ġw indow","Ġs uch","Ġs ample","Ġo per","Ġb ul","Ġb ill","Ġc ertain","ve led","or tion","th ird","Ġis olated","ti e","Ġl ost","id a","ac ing","st em","al ley","Ġsh ap","Ġme et","act ly","ur sday","Ġch allen","Ġcl ockwise","Ġal ong","Ġstart s","Ġv oices","pp ing","iz ont","Ġshow ed","Ġdifferent ly","Ġgraph s","Ġpar alle","ĠJ ust","An nabelle","Ġmod ified","Ġlot s","ait lyn","Ġestim ated","Ġsubtr action","Ġtop ic","Ġsy stem","Ġfl at","Ex ample","Ex actly","Ġmatch es","Ġhundred th","100 0","Ġ13 5","Ġconf ident","ĠT asha","Ġrest ric","Ġ( -","epe nds","Ġidenti ties","Ġpare nt","Ġres pon","ĠF lor","Multiply ing","ĠâĪ ļ","Ġchec king","Ġposs ib","Ġmom ent","Ġlar gest","Ġshad ed","Sub tr","Ġcent er","Ġinfin ity","Div ide","Ġrul es","Ġtumb lers","Ġtaugh t","Ġshap es","Ġchallen ge","izont al","Ġparalle l","ĠFlor ida","R ussel","W ill","n ight","Ġ The","Ġm icrophone","Ġgo al","ar ily","Ġex it","Ġestim ating","Ġpre p","Ġbre aking","Ġconf us","echn ically","% ,","0 2","L e","u nt","w ard","Ġm ental","id en","Ġj ump","as k","Ġ2 1","Ġanswer ing","ath an","Ġ Ġ",".||| (","A wesome","c ribe","Ġb or","Ġp en","Ġch oice","Ġday s","Ġmark ers",".||| ?|||","Ġf air","Ġknow ing","Ġgiv ing","0 4","3 1","4 8","B as","D e","D raw","E s","G rayson","G arret","K ellen","L ooking","M akes","M iles","M icah","P ick","U n","c lockwise","d igit","d imensional","f r","f or","f our","f ort","i re","i us","i red","j ac","l oe","m ed","m ore","o int","p ut","in s","Ġs ib","Ġd epends","Ġb unch","Ġp ush","Ġc ross","Ġc otangent","an c","Ġn ight","ll ip","se lves","ay den","Ġl abe","Ġl ife","ar ia","Ġwe igh","Ġwe dges","Ġe fficient","id er","ac ob","st ep","Ġr ow","What ever","ver se","Ġst raw","Ġfor got","ad en","ec c","Ġse p","ur ph","Ġ5 5","Ġ5 7","Ġpa ges","ie ld","Ġsa ge","Ġany more","ĠA b","Ġal most","Ġother s","Ġv ide","ab ol","On ly","Ġ8 5","ĠB rody","Ġsix th","Ġpar abol","iv es","An other","Ġbl ank","ip s","ĠK ailey","ĠK ai","Ġgr ow","Ġma p","Ġcomp aring","Ġimp ro","Ġrev ising","orm ally","Ġdisc ount","Ġsmall est","Ġhard er","Ġpay ing","Ġrew r","ĠN ick","Ġchang es","Ġreason able","Ġyear s","Ġsheet s","Ġdist r","Be fore","Ġmon th","Ġ36 7","Ġcoordin ates","Pl ug","Ġsitu ations","Ġtyp ical","Ġph one","Ġbro ther","Ġposs ible","Bo th","Bo ys","Ġmar ks","Ġgrad ers","ĠV alley","Ġwal king","Ġtrans l","ĠBr an","Ġjus tify","Ġarg ument","Ġtwel ve","Ġcolle ction","Ġburn ed","ĠTh ursday","Ġinv ol","Ġinstru ctions","Wor k","jac ent","llip tical","Ġlabe led","urph y","Ġb ounce","ere nce","ic t","ad y","au rant","Ġdec ided","Ġbas es","Ġcall ing","Ġrest aurant","Ġchang ing","Ġad just","Ġacc ur","Ġhope fully","Ġt ask","Ġb ur","Ġc ool","Ġse ated","Ġansw ered","Ġver sion","it er","ĠK ay","5 4","Ġh ur","Ġl ater","Ġdrive ways","L isten","Ġt ables","M iss","P re","Ġpencil s","Ġ7 2","Ġfavor ite","\" ,","1 16","2 1","2 9","A shley","B ring","B rody","C orrect","C arston","J ohn","O ops","S tr","a wn","b all","b ecause","e e","i est","l iv","m er","n o","p tion","p ec","r on","u ros","v a","z e","Ġt it","Ġa ut","re ci","Ġw ater","Ġd ependent","Ġd imensional","Ġm ach","es sed","Ġf ore","Ġc or","Ġc rit","ve nt","or ter","Ġis olate","Ġl ow","Ġl ive","ar a","ar ch","Ġe nds","Ġe arl","Ġe lliptical","om atically","Ġu nd","Ġre verse","ver al","pl ay","Yes terday","au ti","Ġse veral","Ġex c","Ġ3 8","Ġmy self","Ġpl aces","So l","Ġ5 2","Ġch ose","em s","Ġsa ve","Ġper form","Ġcon j","nder son","Sh awn","ag le","op ing","Ġsolve d","Ġbu ddy","Ġfunction s","Ġpre fer","Every thing","Ġquadratic s","Ġfl i","Ch eck","Ġfit s","Ġ17 0","Al ison","Ġinc orrect","Nice ly","Ġcolor s","Add ison","Ġsimplify ing","Ġsn ow","Ġapp reci","Ġass ume","Ġpercent age","Ġrational izing","Re ese","Ġfollow ing","Ġlar ger","Ġallow ance","Ġreg ular","Ġproof s","Ġincl ud","Ġfam ily","Ġtra veled","Ġdaughter s","yl an","Ġmemor y","Fl ash","Ġhor izontal","Ġbr acket","Subtr act","Bas ically","Garret t","ecc a","Ġsep ar","Ġvide o","liv ia","Ġaut omatically","Ġearl ier","3 5","3 9","4 00","i lent","Ġ So","Ġa ver","Ġm us","le x","Ġne cess","ĠC o","ĠS u","Ġ13 6","Ġdist ance","Te am","Ġpost er","Ġcombin ation","Ġsandwich es","Ġprep ared","Ġconfus ing","Ġnecess arily","r ist","s s","Ġs ounds","ar ify","Ġwor th","Ġcl arify","Ġsm art","Ġsc reen","Qu ick","Ġvol unt","Co le","Ġrecord ing","Ġvolunt e",". \"","le e","Ġl iter","Ġmatch ing","Ġliter ally","Ġ16 7","Ġref er","3 2","c ket","ar m","ber t","Ġtoolkit s","] .","Ġre t","Ġbig gest","Al so","Ġcontin ue","% .|||","3 7","4 9","A T","A d","C lockwise","C ynthia","D i","E yes","E qual","H ope","I ce","J acob","M ath","O wen","T w","W indow","b ered","c on","d iv","e nd","f ive","g y","h alf","i ally","k en","l ings","p ond","r ance","s ider","t use","u id","w an","y ing","Ġt ou","Ġt rain","Ġt ired",".||| ,","Ġa xis","Ġs in","Ġs er","Ġs qu","Ġs ound","er ia","Ġg roc","Ġb en","Ġb ath","Ġb inomial","Ġm et","Ġf ield","Ġp ounds","Ġp acket","Ġc ros","le v","th en","Ġl i","Ġl ay","ar ner","ar ry","Ġwe ird","Ġwe dge","id ing","Ġr un","ed back","Ġan al","ut s","Ġsh oes","Ġsh orter","pl ication","Ġme ant","ive a","Ġ2 6","Ġ3 1","Ġ3 5","Ġpro ving","are nt","Wh ile","Ġtr ig","Ġwork out","ie l","Ġcom fort","ĠA dd","ĠA nderson","Ġ10 5","Ġint e","Ġpo p","nder stand","Is n","Ġunder ne","ĠC arston","Ġstr ing","ough t","Ġhelp ing","Ġco ins","Ġsec tions","Ġfe edback","Ġbl ock","ia ble","Ġes sen","il ity","Ġdis play","Ġbu ild","Ġhapp y","ĠK ell","St ep","Ġ100 0","ĠS AT","ĠS wan","Ġfl ash","Ġclass es","Ġclass room","Ġsc ience","ĠE than","ĠE mily","Ġpat ient","Ġconver t","ri an","Ġsign s","Ġsimpl est","Ġteach ing","Stand ard","ĠN athan","ith ya","Ġfew est","Ġsl ate","Ġclear ance","Ġbott le","Multi plication","Ġar t","ĠW es","Ġres ul","Ġconst r","Ġinter se","Ġdro p","Ġstay ing","Ġcre am","Ġcount ing","Ġvar iable","Ġad v","Ġsing ing","Ġchec ked","Ġent rance","Ġquadrant s","Ġcolumn s","Ġabsolute ly","Ġdistrib ute","Ġdeterm ine","Ob viously","Ġoper ations","Ġbul le","Ġrestric tions","Es tim","med i","Ġsib lings","Ġstraw s","ĠAb by","Ġimpro per","pec ially","Ġtit le","Ġmach ine","Ġcrit eria","auti ful","Ġexc ited","Sol ve","Ġappreci ate","Hope fully","Ġgroc ery","Ġbath room","Ġunderne ath","Ġessen tial","ĠSwan son","4 2","K ailey","P eople","b ut","d o","e qual","n ess","Ġ Okay","Ġwho les","Ġsa le","Ġref erence","Ġass ign","Ġquoti ent","C l","in a","Ġknow led","ath er","Ġspe ak","Be ep","Ġdiag ram","Ġbur rit","Ġknowled ge","F ig","Ġre ach","Fig ure",") .","Ġto night","?||| .","Ġc atch","ĠA ustin","Ġgr ids","Ġsl ow","G r","g r","Ġk it","Ġw arm","ĠCol bert","Ġbor row","S it","Ġon line","ch oice","Ġbo at","-||| -","4 7","5 8","B ack","C om","C omp","D an","F if","G raph","G abby","H as","I nt","J unior","J ayden","K aitlyn","L uc","M ore","O livia","P ar","P ris","S am","] ,","c l","c us","c use","e or","e ah","g o","g ia","i en","i as","i ous","k i","m ents","n ow","n ter","o ver","p en","p oint","r ive","Ġ <","Ġ er","Ġ Ne","Ġt echnically","Ġth umb","Ġth row","Ġth rew","Ġa ud","at re","Ġthe atre","Ġto wn","Ġh oping","Ġb ought","Ġp ul","Ġc reat","an y","Ġit ems","Ġdo g","Ġl and","Ġl uck","Ġe uros","Ġbe autiful","st ood","Ġre read","Ġre lev","Ġsh ell","Ġne ither","ver s","Ġst am","Ġst ate","Ġk id","Ġup fr","ul ous","Ġknow s","Ġlike d","Ġex cept","Ġex tr","ent y","Ġas ks","Ġequ ally","rou d","Ġbut ton","Ġfour s","Ġfact s","Ġ5 3","Ġ5 28","ff ect","em bered","ph as","ĠA l","ĠA iden","Ġexpl ore","Ġ6 80","ub rey","ab ulous","Ġpo ly","Ġno body","Is abella","Ġus es","Ġus ually","Ġunder stood","ĠC ynthia","ĠB en","Ġ7 3","Ġ7 6","Ġsol id","Ġpr inc","Ġ9 8","Ġ9 00","Ġro ll","Ġhelp ed","12 0","Ġ\" |||","An sw","Ġoff ice","Go ing","Ġstu ck","ait lin","Ġfun ny","ip al","ip roc","il led","Ġke pt","Ġcub ed","Ġseven ths","Are a","Ġpre tend","Ġcou nter","Ġsubtract ed","Ġfl uid","Ġlist ed","Ex cuse","Some thing","Ch arlie","Ġsc or","ĠG eor","Ġtri angles","Ġop tions","ĠE li","ĠT arget","ord an","Ġguess es","Ġra ising","Ġsum s","Ġsimpl ified","ket ch","Ġteach ers","Ġmatter s","Ġwee ks","Ġar rive","ĠIs abel","Ġref resh","Ġph rase","Ġapp ear","Ġcount ed","Ġdefin ition","Ġbro ken","Ġallow ed","ane ous","Ten ths","Ġwal ked","Ġsister s","Ġnote book","Ġincl ude","ĠO wen","Ġbag s","ĠJulian a","Ġrel ated","Ġgener al","Min us","Ġem phas","Ġdeal ing","Ġplugg ing","Ġrespon s","Ġparabol a","Ġrewr itten","Ġinvol ve","Ġaccur ate","Ġfore ver","Ġbracket s","Ġret ake","Di ff","Tw enty","Ġmet ers","arent ly","Ġinte ger","Ġinterse ct","Pris m","ĠNe ve","Ġpul led","Ġshell s","Ġupfr ont","Ġextr aneous","Ġprinc ipal","iproc al","ĠGeor gia","D ude","P h","c an","c ould","c ad","ou th","Ġh ang","Ġp ow","ac y","st r","Th umbs","No body","em ic","ĠA ddy","ĠA lex","pp ort","Ġhas n","Ġ20 5","ĠM s","Ġseven th","Any thing","Ġver sus","Ġmatch ed","Ġmeas uring","Ġparenthes is","Ġapp ro","Ġstic ks","Re ally","Ġpost ers","ale b","Ġent er","Ġaver age","Ġmus ic","ĠSu pport","cad emic","A r","c le","Ġt ic","in ing","Ġd uring","Ġc and","om as","Ġfam ili","Ġseem s","Ġvolunte er","Ġburrit os","Ġtic ket","Ġfamili ar","Ġ --","Ġre cess","4 1","Ġreal ized","f if","r ary","ti v","Ġmo tiv","Ġpartition ed","ib rary",") ?|||","a z","?||| [","ic ul","ub ble","Ġpic ked","Ġph ones","e an","Ġc r","Ġcle an","Ġsl ip","Ġstrugg ling","- (","0 3","3 8","5 3","5 00","6 4","8 1","8 4","8 7","C ool","C ooper","D u","G rant","H is","H ailey","H alf","L en","M iriam","M urphy","N ormally","P ay","S um","T angent","U sing","W es","W ere","a ac","a ving","b s","d y","d ney","e et","g n","g th","h ere","h ed","i ant","i ties","l a","m in","m end","n is","n ces","o on","o ph","p id","p ose","p ect","r or","t urn","u a","u ed","u ce","v in","v ie","v ia","x es","y dney","Ġ >","Ġ Q","Ġ That","Ġ All","Ġ Well","Ġ Does","Ġ Right","Ġt em","Ġt ip","Ġa w","Ġa ct","in et","in ci","re nt","Ġs le","Ġs we","Ġs ilent","Ġs ketch","Ġo we","Ġd ude","Ġg on","Ġg ames","Ġh ers","Ġh eck","Ġb rough","Ġm ed","Ġm ass","Ġf ac","Ġp ot","Ġp ound","Ġp ortion","Ġp roud","Ġc ause","Ġc ra","Ġc up","Ġc ities","ve red","on al","Ġgo sh","se t","en s","ay a","Ġl im","Ġl augh","Ġl iving","Ġwe ight","om mend","Ġin put","ere nt","Ġr out","ke nd","Ġre nt","as ing","Ġsh ir","Ġsh op","pl ate","im in","ant s","Ġ2 9","ce ption","ion s","Ġex per","Ġ3 50","ake d","Ġpro p","No pe","Ġhe aring","Ġthink s","Ġpart y","Ġthem selves","Ġ5 12","Ġch ar","Ġch ip","Ġwork sh","Ġbo y","Ġpa st","ĠA s","Ġz one","Ġ6 3","Ġother wise","Ġv oice","Ġdiffere nces","Ġcon sen","Ġwere n","if ication","Ġshow down","Ġta pe","ĠC ass","ĠC arter","ĠB ecca","Ġstr uct","Ġ9 6","Ġam ong","Ġgraph ed","Ġpar k","Ġ12 1","Ġco ach","Ġco vered","Ġhalf way","Ġmo vie","ĠJ J","ĠJ aden","Ġpoint ing","ast er","In tercept","Ġstu pid","ect ure","Ġrad ius","ĠM ichael","ĠM icah","Ġdraw n","ag an","ag us","Ġsp ots","Ġsub div","Ġ15 2","Ġeas ily","Ġeas iest","ĠK y","Ġsu per","Who a","Ġmove d","Ġgreat est","Ġim medi","Ġel imin","Ġtest ing","Ġkind s","Ġkeep s","Ġten nis","Ġ16 8","Ġ16 9","ĠS il","ĠS av","Ġstand s","Ġplay ed","Ġset up","Ġbas ket","Ex cept","Some one","Ġrec ommend","ĠCh ase","ĠCh loe","ap s","enti al","Ġsc ore","Ġsc ale","Ġsc ribe","og ram","Ġ13 0","ĠT ues","Ġfif teen","Ġ24 0","ĠD e","ĠD an","Al ways","ĠL eo","ĠL arry","Ġspec ial","Ġ11 8","Ġmis con","Ġsl ates","Ġpur pose","Ġtrick ier","Ġspecif ically","Add ing","Add ie","Ġwee kend","uc tive","âĪ ļ","Ġtyp ically","Ġold est","Ġdro pped","Ġtextbook s","Ġconcept s","Ġass um","ex ie","ĠâĪ Ľ","Ġwatch ing","Ġdefin ed","Ġswitch ed","Ġsummar izing","Ġbro ke","Ġpizz aria","Ġparaph r","Ġmar ked","Ġchoo sing","Tim e","Ġtarget s","Ġeat s","Ġjus tice","Ġshad ing","Ġ75 2","Ġappl ause","ĠZ ack","Ġtra vel","Ab out","Ab by","Mr s","back g","Ġcur rent","Ġquoti ents","olog y","Ġplugg ed","Ġinterpre ting","Ġrandom ly","ili ties","Other wise","Ġbill s","Ġparent s","Ġpossib ility","Ġparallel ogram","Un it","Ġdistr action","Pre tty","Str ings","Ad jacent","Ġben ch","Ġcros sing","Ġcomfort able","Estim ate","Ġassign ment","Ġrelev ant","Ġstam ps","Ġstate ment","ĠAl ison","Diff erent","Len gth","hed ron","min ute","oph agus","Ġtem plate","inci ple","Ġsle ep","Ġgon na","Ġbrough t","Ġrent al","Ġshir t","Ġworksh eet","Ġconsen sus","Ġstruct ure","Ġimmedi ately","ĠTues day","K ai","P ower","S c","f old","o ves","in ed","Ġm outh","on str","Ġin ch","Ġin equal","ĠA cademic","ĠM iss","Ġagain st","Ġpic king","Ġcomm un","ĠG abby","Ġdes cribe","ĠP r","Ġpow ers","Ġcand y","Ġinequal ity","P AMP","W ednesday","l s","p ack","An n","Ġpre ss","Ġremember ing","Ġsc oo","Fraction s","Ġsnack s","ĠKay lee","ic ity","Ġmultipl icity","5 5","?||| $","ll y","se y","Ġl ibrary","Ġdraw ings",").||| (","3 3","Ġ '","Ġ ÃĹ","re ed","Ġdiff icul","Ġpo cket","Ġthought s","H el","h our","n i","Ġs ug","Just in","ĠS ean","Ġreal ize","ond ay","Ġfair ly","Hel p","Ġsug gest","' '","4 50","5 1","6 00","7 0","9 9","? \"","A c","B ella","C ar","C ut","C ol","C ub","C arl","C oun","C otangent","D is","D own","D ist","E as","E lla","E li","E mily","H our","H all","J es","J ulian","J oe","K now","L o","M ar","M od","M ove","N ithya","N inet","O ut","O pen","P o","R es","R ay","R ec","S m","S ec","S im","S till","T ot","T ri","U nderstand","W as","W alk","Y eah","Z er","a pp","b it","c ed","c ise","c rib","d id","e g","e fin","e tie","f ric","g res","h e","h an","i ti","k n","k es","l ow","l ike","l ate","l ife","m ark","m ates","n ect","n ah","o h","o nder","o pping","r iting","u age","w idth","y m","z y","z ero","â Ĥ","Ġ Now","Ġ There","Ġ Sh","Ġ âĤ","Ġt er","Ġt reas","Ġth ick","Ġa ffect","in tic","in ks","Ġw in","Ġw ave","Ġw onder","at t","at io","at oes","Ġy ard","Ġo ops","Ġi gn","Ġd ad","Ġd ep","Ġd el","Ġg if","Ġh um","Ġb ir","Ġb aked","Ġm ust","Ġm icroph","Ġm essed","Ġf all","Ġf acing","Ġf anc","Ġf abulous","Ġf illed","Ġp ol","ve y","an nah","le en","Ġn et","Ġn ormally","or n","or ad","or ation","or sey","is tic","th day","th ink","Ġis s","Ġha bit","Ġl ang","Ġl ower","ar i","ar r","ar ly","ar oon","Ġe vent","Ġe arly","Ġ1 10","Ġ1 12","Ġr ing","Ġr ounds","ic s","ic y","ic on","ut es","Ġj ud","Ġj unior","Ġsh own","Ġne ar","Ġst age","Ġst opping","pl ied","Ġfor ward","ec king","Ġk idd","ro l","Ġup side","Ġnot ation","Ġ2 24","Ġ2 60","Ġknow n","Ġor ange","Ġdon uts","Ġdi rect","Ġbec ome","No thing","Ġle arner","Ġle aving","ge l","ch eck","ch ecking","Ġ4 12","Ġtr ip","ain ing","Ġover all","Ġover think","Ġ5 00","Do ing","Ġch e","Ġch est","Ġch alle","Ġch oices","Ġwhen ever","Ġgu essed","Ġbo om","ol n","Ġadd s","Ġany where","ĠA ctually","ĠA fric","Ġpartner sh","Ġal ph","Ġal one","Ġal tern","Ġ6 40","ab y","Ġint rod","Ġmin s","Ġcon te","Ġcon sider","if ies","if ted","Ġta st","Ġ8 1","Ġ8 7","Ġag o","Ġfigure s","ĠB rian","Ġ7 8","Ġ7 34","Ġgood ness","Ġte nd","Ġpr inciple","Ġro le","Ġ12 5","Ġtalk s","âĢ ĭ","ĠJ ustin","ĠJ ohn","ĠJ ordan","12 5","Ġun kn","Ġ20 1","ĠM ia","ĠM urphy","Ġrem aining","Ġbl ack","Ġes pecially","Ġes ophagus","Ġdis app","Ġbet a","Ġteam mates","ĠK aitlyn","Ġ18 4","Ġ18 5","adr atic","uct or","uct ed","Ġim ag","Ġim plied","ĠR ussel","ĠR ylan","Ġtest s","Ġterm in","ĠS p","ĠS am","ĠS late","Ġcomm a","Your s","Ġver tic","Ġrec iprocal","Ch loe","ten th","Se an","Se vent","ĠG r","Ġdes crib","20 20","Ġrest ate","Ġ200 0","Ġap olog","Ġsum mer","Ġhard est","Ġ60 8","enc es","ĠL iv","ĠN ivea","Ġbar s","Ġpull ing","Ġmis s","Ġmeasure d","Ġmeasure s","200 8","Ġdiscus sing","Would n","Qu intic","Ġreason ing","Ġsl ide","Ġsl ope","Ġplot ting","Ġbring ing","Ġcut ting","Ġsent ences","Ġsur vey","Ġmist akes","Ġ22 5","Ġbeh old","Ġob viously","Ġob tuse","mar ks","Ġgl ad","Ġgl ue","Ġres pond","Ġold er","ĠIs abelle","Ġexplor ing","Ġexplor ations","Ġstraight for","Te xtbook","Ġref le","Ġph ot","Ġstay s","Ġconcept ual","Ġcont rol","Ġchair s","Ġfold ed","36 0","ĠâĪ Ĵ","Ġbrain s","Ġad jacent","Ġmathem atic","Ġexpect ed","Ġexpect ations","ret ch","Ġprom ise","Ġgrad ed","Ġstick y","ump s","Ġshortcut s","46 4","Ġreg ards","Ġappl ies","Ġcombin ing","Ġmid point","Square d","Ġstar red","Ġhighlight ed","Base d","Ġprofit s","Ġtwel f","Ġcur ve","Ġdiag onal","Min utes","inc oln","ĠRe agan","Ġinterpre t","Ha ley","Ġtax es","Ġwra p","ĠCol orad","Br an","ĠDo ki","third s","Ġsystem atic","Ġrespon se","Ġpossib ilities","Ġweigh ed","Ġrow s","Ġdistr act","ict or","Ġversion s","Ġhur ts","Ġcor ner","Ġlow est","Ġund efin","Ġperform ers","Ġfli pped","Ġincorrect ly","Ġsnow board","Ġinclud ing","Ġsepar ate","ĠCo x","Quick ly","Equal s","Ġtou ch","Ġtrain ing","Ġsqu aring","Ġbinomial s","Ġli kes","Ġanal y","ĠAdd ison","Ġresul ts","Ġconstr ucted","Ġadv ice","Ġbulle ts","gr ade","Com ple","Comp are","Luc ien","Par tial","cus s","Ġer ror","Ġcreat ing","Ġluck y","Answ er","Ġscor p","Ġarrive d","Ġrespons ible","Ġinvolve d","-( -","Du ke","Ġmed ian","Ġpot atoes","Ġcra zy","Ġprop ortion","ĠSav annah","Ġbasket ball","Ġmiscon ception","Ġassum ing","Ġparaphr asing","backg round","Ġbench mark","Sc oot","Car son","Coun ter","Dis cuss","Dist ance","Hour s","Hall way","Know ing","Ninet y","Zer os","ĠâĤ ¬","Ġtreas ure","Ġbir thday","Ġmicroph ones","Ġfanc y","Ġlang uage","Ġjud ge","Ġjunior s","Ġkidd ing","Ġchalle ng","ĠAfric a","Ġconte xt","Ġunkn own","Sevent y","Ġstraightfor ward","ĠColorad o","Ġundefin ed","C aleb","K ell","T echnically","f e",".||| \"","re ak","er ial","Ġd em","ic ate","Ġst yle","ul y","Ġtr uly","Ġmat erial","Ġ30 4","Ġpre d","pre s","Ch ase","Ġsc oot","ĠN ave","Ġdisagree ment","Ġeigh th","Ġacc ount","Ġcolle ct","Ġdem onstr","7 5","K at","Ġsh ove","oo ke","Ġwho ever","Ġpl ane","Ġback pack","Ġ9 5","ĠJ ournal","arn ing","Ġcont ain","Ġreview ing","Ġpass ing","Ġcomput ers","Ġspeak er","Ġscoo p","r up","er v","Ġqu izz","Ġquizz es","- ?|||",".||| $","?||| \"","Ġr ate","am ing","ry ce","F ort","Ġb ubble","Ġe arn","ĠC an","ĠM onday","Ġrepresent ing","Ġfold ing","Ġmid night","C al","Ġn one","Ġfast er","az ing","b ie","Ġ Here","Ġc ry","ar per","ĠA re","Ġfinish ing","vi ous","With out","1 50","3 Â²","4 4","8 2","8 5","8 00","= -","A pp","A ubrey","B ig","B rian","C os","C irc","C aitlin","D ec","E ither","E rase","E my","E agle","F in","F ree","F ine","G roup","G entlemen","G rab","H ead","I d","I m","J us","J ournal","K yle","L ess","L oc","M ike","M ine","M ark","M ost","N ivea","O pp","O rd","O ption","P ad","P ull","P izz","R en","R et","R ate","R ational","R ylan","S et","S pe","S tic","S ave","S ydney","T y","T ool","U s","W atch","^ âĢĭ","a ul","a per","b ru","c ient","d ing","e very","e ak","e led","e acher","e bru","f ound","f ied","f actor","g g","g art","h h","h ip","i pped","l ook","m ing","m an","m as","m ber","m ulti","m embered","n on","o y","o le","o lly","p ri","p tian","r ome","r ate","r ied","s ome","s ix","s ince","t em","u ing","u th","u ge","u itive","u nderstand","v ail","w ould","x s","y th","z ie","¼ low","Ã ¼low","Ġ /","Ġ How","Ġ Then","Ġ When","Ġ Where","Ġ She","Ġ enc","Ġ Shawn","Ġt an","Ġt reat","Ġt ile","Ġt echn","Ġa ir","Ġa ge","Ġa pe","Ġa xes","Ġa vail","in ny","re n","re ase","re membered","at s","at u","at um","Ġs ad","Ġs ass","Ġi Pad","er n","er gart","Ġd ra","Ġg ather","Ġh ot","Ġh ol","Ġh ide","Ġh uge","Ġb an","Ġb ra","Ġb iz","Ġb att","Ġb aby","Ġm eter","Ġm aster","Ġf el","Ġf ire","Ġf ives","Ġp or","Ġp as","Ġp lent","Ġp uzz","Ġp umps","Ġc ore","Ġc ray","on est","on nect","an a","an ess","Ġn on","Ġn th","Ġn ines","Ġn uts","ĠI n","ll ab","is a","se ven","th a","th is","th ere","th ough","en ly","en zie","ay len","Ġl ie","Ġl og","Ġl ining","ig g","ar s","ar ison","Ġe ff","Ġe val","Ġe agle","Ġbe ach","Ġbe ating","id y","om an","Th ir","Th omas","al ah","igh ths","Ġr ay","Ġr ub","Ġr atio","Ġyour selves","ed own","Ġwh ose","ic an","Ġan imal","Ġan ni","Ġwi ld","Ġre pl","Ġso ph","ut a","ut ing","ut umn","Ġsh it","Ġsh ot","Ġsh el","Ġne at","ust r","Ġwith in","Ġk ah","oo se","Ġme mber","ir ian","Ġup to","Ġup set","art ment","im my","Ġat tend","Ġat tem","Ġfr ustr","Ġ2 50","Ġ2 16","Ġ2 17","It s","Ġlike ly","all est","Ġse nd","Ġse qu","Ġse arch","od dy","Ġex tend","Ġ3 3","Ġ3 12","Ġdi zz","Ġpro ves","Ġpro ps","Ġpro gres","Ġsome how","ly hedron","Ġwant ing","Ġwor ried","ation sh","ra ising","Ġhe y","Ġhe ll","Ġhe ater","Ġtim er","ter s","ack enzie","ch uck","ore an","and a","and ra","ine ar","Ġpl acing","Ġ4 64","Ġtr ust","Ġtr inomial","ur f","Ġthing y","Ġover l","os ing","Ġthem e","Ġ.||| .|||","Ġ5 9","Ġ5 11","Ġch ick","Ġch op","Ġch ild","un a","un e","un g","un ter","un ately","ard en","Ġcl osed","Ġany way","Ġput s","ĠA nd","ĠA mer","ĠA ubrey","Ġal to","Ġ6 6","Ġdiff ers","Let s","ab et","pp y","pp er","Ġmean ing","Ġexplain s","Ġzero es","Ġag reed","ĠC l","ĠC aitlin","ĠB e","ĠB ecause","ĠB ella","ĠB ryce","ĠB Ã¼low","Ġ7 9","cept able","Ġstr ay","Ġstr ips","Ġlet ting","Ġread s","Sh are","Ġco nd","Ġco llab","les hip","Ġmo b","Ġsec ret","ĠJ oe","ĠJ ane","omin ic","Ġun less","In ches","Ġmod eled","Ġdec reasing","Ġrad iant","ĠM a","Ġrem embered","Ġbl ess","ag ing","ag on","ag ic","ag orean","Ġsp ort","ia h","op ic","il t","Ġtheir s","Ġagree ment","Ġdivide nd","Ġbu ys","Ġbu cket","Ġfin ally","Ġestim ates","ĠK ans","ĠK oh","ĠK uta","Ġ18 6","Ġsu dd","Who le","Who ever","Ġde v","Ġde vel","Ġgr am","ĠR ay","ĠR emember","Ġkind ergart","Ġkeep ing","Ġsy non","Ġstud ying","Look s","Ġdivision s","Ġbit s","Ġnumerator s","Ġcomp any","Ġcomp arison","Ġcalcul ation","Ġcalcul ate","Ġcomm ents","Ġrev is","Some how","sion s","Four ths","Ġhand ing","ys is","Ġver bs","Ġrec til","Ġac qu","Ġac tive","Ġac cess","ĠCh ap","ĠCh rist","ĠCh rome","kit s","enti fy","Ġhundred s","Ġdes ert","sh lyn","Ġdisc usse","Ġdisc onnect","Ġ13 1","Show down","Ġequivalent s","ĠH ailey","ĠH unter","ĠE gy","ĠT eacher","Ġprocess es","Ġcomple ting","30 3","rection s","Ġconver ting","Ġ200 8","ear s","Ġ14 0","Ġ14 6","Ġguess ing","Ġhead s","Ġdr ink","Ġdr inks","Ġsimpl er","lem ent","Ġleng ths","Ġexpon ential","Ġlisten ers","ĠP yth","Ġsk inny","ĠL exie","ĠL incoln","Ġinst ance","ĠN ithya","Ġmis understand","Ġmis remembered","24 6","Ġmeasure ments","book s","Ġcomplete ly","Qu iet","Qu adratic","Ġsl ash","Ġparticular ly","Ġ19 2","Ġopen ing","Ġopen ed","res pon","Ġcompare d","Ġmon omial","Ġ22 2","Ġcubic s","Ġlove d","Ġgl ued","Ġres our","Ġres pect","27 0","Turn ing","ĠIs abella","ĠIs aac","Ġsw ive","Ġfo il","Ġsurf aces","Ġapp arently","18 6","ĠF ebru","Ġfree ze","19 3","36 7","reas es","Ġswitch ing","Ġmathem atically","Ġcop ied","Ġexpect ing","Ġsummar y","rit ney","Am anda","Ġrot ations","Ġclip board","Ġexpression s","Ġobj ect","Ġgrad er","ĠV aness","Ġfoc used","Ġtrans ition","ĠAn n","Ġvisual ize","ck ale","Ġappl ication","Ġappl ied","Ġdiscussion s","Ġcam p","Ġcombin ed","sen se","Ġmax es","Ġconnect ing","Ġconnect ed","Sub stitute","Ġ28 2","Ġhighlight er","Ġfocus ing","Ġrel ationsh","Ġbread s","Ġfing er","Ġloud er","yl via","Ġmemor ize","Ġgener ate","Ġremind ers","Ġradicand s","Con j","Con sider","Fl ip","Factor ing","rey son","Ġem ail","ĠRe ed","Ġwra pping","Ġwra pper","Ġstrugg le","Ob tuse","ĠDo yle","Ġoper ation","Ġcertain ly","Ġrestric tion","Will iam","De ath","four ths","anc ed","Ġrewr iting","Ġmonth ly","Ġtransl ation","Ġinvol ves","Ġlater al","Ġund o","Ġconj ug","Ġconj ecture","Ġinclud ed","Ġtou ches","Ġanal ysis","ĠAdd ie","Ġpop ul","Ġbuild ing","ĠKell y","ĠKell an","Ġconstr uctive","Ġbulle t","Cl ose","Dan ny","Dan iel","Fif teen","Ġaud io","vers ary","Ġroll ing","ĠIsabel a","Ġemphas is","ĠNeve ia","ĠNeve ah","Ġappro pri","Ar tie","Ġticket s","fif th","Ġaw ful","Ġswe etie","Ġfac edown","Ġcause d","Ġlim ited","Ġrout e","Ġchar act","Ġsubdiv iding","ĠSil icon","ĠDan iel","Ġtravel ing","ĠPr ice","Carl os","Jes us","Sm allest","Sec ond","Tri angle","Ġter rit","Ġthick er","Ġign ore","Ġdep artment","Ġhum ans","leen ex","istic ated","Ġiss ue","Ġevent ually","Ġalph abet","Ġtast es","Ġtermin ology","Ġapolog ize","Ġrefle ct","Ġphot o","Ġmathematic ian","Ġtwelf ths","Ġanaly ze","Comple te","Ġscorp ions","Counter clockwise","Ġchalleng ing","erv ous","App arently","Cos ine","Circ le","Fin ish","Id entify","Ord er","Pizz aria","Stic k","Tool kits","ptian s","Ġape x","Ġavail able","Ġdra g","Ġhol iday","Ġbra ve","Ġbatt leship","Ġfel t","Ġpor tions","Ġpas sed","Ġplent y","Ġcray on","Ġeval u","alah ari","Ġrub ric","Ġanni versary","Ġsoph isticated","Ġkah una","Ġmember s","Ġattem pt","Ġdizz y","chuck les","ĠAmer ican","Ġalto gether","ĠKans as","ĠKoh l","Ġkindergart en","Ġsynon ym","Ġrectil inear","ĠChrist mas","ĠChrome books","Ġdiscusse d","ĠEgy ptians","ĠPyth agorean","Ġmisunderstand ing","respon se","ĠFebru ary","ĠVaness a","Ġappropri ate","4 3","C ross","J ane","a led","c ing","l ie","y an","Ġw all","Ġb oun","Ġf reak","Ġl oves","Ġ3 9","Ġwor st","Ġpl ain","Ġsa ving","Ġsa fe","Ġ10 8","St ud","ĠR yan","Ġset ting","Ġord ers","Ġ0 1","ĠG arret","Al most","Ġapply ing","ĠâĪ ľ","Re pl","Ġtall er","Kay lee","Gr ady","Ġwarm up","Ph ones","Ġhang ing","Ġboun cing","7 00","A iden","M atch","N athan","g u","m a","n umber","Ġg rand","id ual","Ġr ather","Ġsc en","orm al","Ġind iv","Ġcont ents","Ġhit s","ĠTh omas","Ġearn ed","\" ?|||","% ?|||",", -|||","||| -",".||| +","ar io","We lcome","Ġdis rup","?|||( -",".|||( -","Ġmotiv ation","'' .|||","Ġdisrup tive","g an","Ġn aming","Ġor gan","Ġhur ry","Ġrefer ring","fold ing","Ġcry ing","5 7","Ġrepresent ation","fif ths","Fort y",".||| \"|||","?||| ?|||","Ġgo d","Ġper c","Ġam azing","--||| .|||","Ġdifficul t",". .","] ?","a w","p ic","ang ular","Ġbl ind","Ġrect angular","Ġpre vious","Ġbar bie","\" .",") ^","2 24","3 50","6 6","6 8","7 6","7 7","7 8","8 52","9 1","9 3","9 6","9 8","9 00",": [","A h","A very","A ud","A va","A shlyn","B l","B u","B ank","B ill","B ecca","C le","C all","C ain","C ass","C ount","D ou","D orsey","E l","E qu","E uros","E va","E ighths","F ill","F abulous","G en","G od","G ame","G osh","H er","H or","H igh","H and","H idden","H ayden","H arper","H onest","J B","J D","J J","J en","J ames","J ared","J aden","J ordan","K a","K y","L ar","L ight","L ine","L iv","L eo","L ily","L ater","L iam","L arry","L exie","M a","M em","M uch","M ister","M irian","M ackenzie","M ckale","N um","N ick","N ever","N aya","P i","P am","P ie","P ard","P res","P yram","P oint","P aul","R B","R ad","R ect","R oman","S u","S w","S ine","S chool","S urf","T a","T ay","T aking","V ocabulary","V aroon","V ictor","W riting","Y ay","Y ears","Z ack","Z ach","_ =","a ven","a way","b l","b u","b on","b rate","c ur","c os","c akes","c ial","c reasing","c orn","c ern","d on","d ed","d am","d ate","e le","e en","e ight","e ed","e ffic","f ast","f resh","f ield","g at","g on","g one","g roup","g irl","h ind","h and","i qu","i um","i os","i led","i ents","i tions","i ously","i ya","j i","j or","j ect","k ind","l an","l ish","l augh","l ifted","m at","m is","m une","n ack","n ame","o kay","p a","p and","p ort","p ically","p ris","p air","p ective","s u","s in","s er","s es","s quare","s ib","s cribe","s ilent","t wo","t alk","t lin","t opic","u tion","u ro","u ction","u ish","w are","w ith","w riting","x what","x ious","y e","z an","Â ½","Ġ Wh","Ġ ven","Ġ Thank","Ġ Go","Ġ St","Ġ Who","Ġ Think","Ġ Everybody","Ġ Wait","Ġ Or","Ġ First","Ġ Expl","Ġ Stop","Ġ ounce","Ġ Example","Ġ Quintic","Ġ Â½","Ġt um","Ġt ough","Ġt ied","Ġth ir","in king","in ating","re am","Ġw ow","Ġw ack","Ġw ore","Ġw ide","Ġw ast","Ġw ise","Ġw ish","Ġw arning","at ches","Ġs ch","Ġs iz","Ġthe ory","Ġto ck","Ġto mat","er c","er ation","er ry","er gy","ing ton","ing uish","Ġd ict","Ġg ain","Ġg iant","Ġg arden","Ġh int","Ġh oney","Ġh ire","Ġh iding","Ġh ung","Ġb es","Ġb ac","Ġb rand","Ġb abe","Ġm ad","Ġm ec","Ġm ention","Ġm agic","es ter","Ġf ad","Ġf ol","Ġf und","Ġf ixed","Ġf resh","Ġp ent","Ġp ra","Ġp ool","Ġp eak","Ġc um","Ġc ateg","Ġc ap","Ġc ute","Ġc ush","Ġc ele","on er","on ent","on io","an ol","an ley","an aya","le ven","le ction","le ng","Ġn ar","Ġn ose","Ġn ast","Ġn ervous","ĠI I","or ial","is k","is es","is per","is ible","Ġit al","se ver","se arch","th ree","th us","en ominator","en tical","Ġha r","ti fied","ay zan","Ġdo c","Ġdo ck","Ġl ap","Ġl unch","Ġl ives","Ġl ying","Ġl any","Ġl ined","ig ail","ig gy","ar les","ar pen","Ġe dges","Ġe ffect","Ġe gg","Ġe lement","Ġe uro","Ġe ye","Ġe leven","Ġbe at","Ġbe an","Ġbe ad","ac ie","st op","om et","om ach","Th ings","Th ousandths","Th inking","al m","al king","al if","Ġin qu","Ġin ner","Ġin tern","Ġin iti","Ġ1 16","Ġ1 15","Ġr ings","Ġr isk","ed ule","it s","it or","it ally","ic le","ic tion","ic king","ic ked","Ġan gel","Ġan cient","Ġan xious","qu arter","Ġre qu","Ġre ph","Ġre arr","Ġre name","Ġre search","Ġare as","Ġso ft","Ġso cial","Ġj am","as er","Ġsh r","Ġsh arpen","Ġne ck","Ġne gat","Ġst ack","Ġst retch","Ġst omach","um a","pl it","pl ies","pl ify","Ġfor ce","ad er","ec ra","ec il","our age","Ġk ick","Ġk illed","oo th","Ġab sent","ir ie","ro p","Ġup right","ul ative","art ers","im ent","Ġat tr","king s","ant ed","ant ron","Ġ2 10","Ġ2 Â²","Ġse lf","Ġthin ner","Ġex ist","Ġor ang","Ġdon g","Ġdi e","Ġout li","Ġout put","Ġpro ced","The ir","act s","Ġas pect","are n","Ġqu arters","ose ph","ure s","Ġneed ing","ter pre","ack le","ch ase","nt onio","Ġx s","us s","us ion","Ġpl ac","Ġpl ants","Ġpl anted","Ġ4 28","Ġtr ash","Ġtr uth","ur g","ur ch","ur ger","How ever","ain a","ain ted","Ġover wh","irst en","os s","os es","os ure","Ġ5 8","Ġ5 10","Do ki","Ġfactor able","Ġch ain","Ġch un","Ġch alk","Ġch ew","Ġch ips","ff in","ff ee","Ġgu ard","ess ing","ol es","ol wo","un it","un ner","un ction","un ity","Ġpa ired","Ġnow here","Ġdiv isible","Ġthan ks","Ġcl ick","Ġcl ues","Ġcl oner","ach e","ach ing","Ġcom ic","Ġcom pres","ĠA X","ĠA t","ĠA very","ĠA va","ĠA utumn","ĠA dam","Ġour s","Ġal though","ator s","Ġ10 9","Ġ6 2","Ġ6 5","Ġ6 10","Ġ6 77","Ġv iew","Ġv itally","Ġint uitive","Ġper sever","Ġpo ps","Ġcon cl","ative ly","Ġta p","nder s","10 2","10 5","Ġno ise","Is abelle","Is aac","Ġtake away","Ġevery day","ick en","per girl","Ġmath s","When ever","Ġunder line","Ġ8 3","Ġ8 00","Ġ8 10","Ġ8 82","ĠC arl","ĠC aleb","ĠC alif","ĠC ecil","ĠB ill","ĠB uc","ĠB ritney","ĠB urger","ĠB olwo","Ġ7 4","Ġ7 20","Thank fully","Ġsix teen","Ġhad n","Ġgood er","Ġte xt","Ġte nders","Ġ9 3","Ġ9 4","Ġro ad","Ġgraph ics","Ġform s","Ġform al","Sh ort","Sh oot","Sh hh","ough ly","Ġ12 6","ak en","stand ing","Ġco aster","Ġco effic","Ġco ffee","Ġloo p","Ġmo ves","âĢ Ŀ","ĠJ B","ĠJ D","ĠJ ames","ĠJ acob","ĠJ aylen","ĠJ immy","Ġunderstand s","12 00","Ġun fin","Ġun cle","Ġun factor","tim e","In s","In creasing","In terpre","An gel","Ġoff er","Ġ20 4","Ġ20 6","Ġmod ification","Ġdec ision","Ġeight s","ort unity","ĠM ar","ĠM ic","ĠM ike","ĠM ake","ĠM el","ĠM arch","ĠM acy","ateg y","Ġrem inder","Does n","Ġdraw s","Ġval ley","ag les","Ġsp read","Ġsp aces","Ġsp icy","op en","Ġexp ens","ĠY ob","Ġpos ition","Ġpos itions","Ġid entical","Ġside ways","Ġke ys","ish ed","ĠK e","ĠK at","ĠK ing","ĠK ate","ĠK yle","ĠK leenex","ĠK alahari","Ġ18 00","Ġleft over","St ay","St ating","Are n","Ġpre sent","Any where","Ġcou ch","Ġcou sin","Ġgr ass","Ġgr anol","Ġim mune","ĠR oddy","ĠR uss","Ġ16 0","ĠS ince","ĠS chool","ĠS ara","ĠS ydney","ĠS ylvia","ĠS RB","ĠS nack","ĠS uma","Ġma jor","Ġprod uce","Ġprod uctive","Fr iday","Ġmodel ing","ize th","Ġlist s","Ġbas ing","Ġcomp onent","Ġcomp osure","Ġcalcul ations","Ġcomm ent","Ex pon","Ex pand","Ġsit s","Ġafter no","Ġreal izing","Some where","Ġhand le","Ġplug in","Ġver b","Ġac ceptable","Ġsm ooth","Ch oose","Ch icken","ood y","Ġsc rib","Ġsc ary","Ġsc ared","Ġsc antron","Ġrepresent ed","ĠG erm","ĠG reen","ĠG arner","ĠG reyson","20 6","Ġdisc over","Ġtri ple","Ġspl itting","bo ards","wor d","Ġheight s","ĠH igh","ĠH old","ĠH enly","Ġconf ir","Ġconf use","ĠE va","ĠE agle","ĠT a","ĠT ob","ĠT atum","ĠT ayzan","Ġbreak fast","Ġperfect ly","Ġinf lection","Ġ( âĪļ","Ġconver sions","ord ing","ri ffin","Ġ14 7","Ġhead ache","Ġap art","Ġap ple","Ġsimpl ification","Ġsimpl ifies","Ne arest","Ġbook marks","Ġclose ly","Ġ24 00","Ġlesson s","ĠD orsey","ĠD ominic","Ġind eed","ĠP art","ĠP iggy","Ġsk ipped","Ġ17 1","Ġ17 6","Al isa","Per imeter","Per cent","ĠL e","ĠL uc","ĠL ond","ĠL isten","ĠL eah","ĠL eg","Ġ25 6","Ġspe aking","Ġinc rease","Ġinc reases","Ġhigh er","Ġhigh est","Ġmark down","row ed","200 0","Ġen g","Ġen ergy","Ġen thus","Ġred o","Ġred raw","Ġred uce","Ġsha king","wh en","wh ich","Ġyear ly","Ġfew er","igin ally","ash ington","Ġ56 0","Ġerase d","Ġpur chase","Ġtrick iest","Ġmost ly","ian a","Ġ19 1","Ġ19 3","Ġorigin ally","Ġopen s","Ġloc ations","Or ange","Or iginally","Ġdist inguish","Add y","Be hind","Ġsur pris","Ġschool s","Ġar m","Ġar row","Ġodd s","uc ed","Ġdisagree ments","Great er","Pl ay","Pl ot","ĠW ill","Ġgl oves","Ġlead ers","Ġinter ru","Ġinter medi","Ġhold s","Ġneighbor s","Ġsuc ks","Ġsn ee","Ġ27 0","Ġfo iled","25 4","Ġconcept ually","Ġcont ent","Ġcont acts","18 0","Ġju icy","rod uct","Ġnotic ing","Ġopp ortunity","Ġfold s","Ġfold er","Ġbegin s","Expl anation","erest ing","Ġprove d","Ġexpres s","Ġexpres sed","ne gative","Ġlabel s","Round ing","Ġyell ing","Ġlight er","omp ose","Ġvis it","Ġdou b","Ġmind s","Ġinterest ed","Ġcop ies","Ġrepeat s","Re fresh","ume iya","Ġconstant s","Ġchec ks","Ġmom ents","Should n","Should er","Ġpyram ids","Ġacc ident","Ġacc ording","Ġcomput ation","Ġgen re","Ġgen ius","Ġmar kings","Ġrot ate","ĠJosh ua","Ġpractic es","Ġpractic ed","Ġpractic ally","Pro fit","Ġcapt ure","Ke ith","Ke vin","ĠV ictor","Ġwal ks","Ġtrans form","ai led","ĠBr ady","Ġcour age","Ġreg ard","Ġjus tified","Start ing","Ġcopy ing","Ġent ertain","Ġwhe el","Find ing","ĠZ ach","Ġmax imum","Square s","ĠO d","ĠO livia","Ġmethod s","56 8","ĠIt al","Ab ove","Josh ua","yl and","Ġcook ie","Ġdoor s","Ġarg ue","Kay ley","Kay tlin","ĠAnnabelle le","Co ver","Co ach","Ġremind ing","Ġremind ed","34 8","Div ided","Ġrul er","Ġplan ning","Con cise","Ġbell y","ĠRe ese","Ġbasic s","ĠPAMP s","Ġinstru ction","Ġdistrib uting","Ġdistrib ution","Ġinterpre ter","Ha ving","Ġdeterm ined","ÃĹ _=","Ġstrugg led","Br ady","Br ooke","Ġbul b","Subtr action","Ġprep are","Ġconfus ion","Le ast","Le ave","Le vel","Ġbor n","De al","De Angel","Draw ing","Es pecially","four th","fort unately","Ġsib ling","ĠAb igail","Ġparabol as","Ġgrow s","Ġgrow ing","Ġimpro ve","Ġtransl ations","Ġtransl ating","Ġaccur ately","Str ategy","ball s","Ġ38 4","Ġchose n","Ġsave d","Ġperform ance","Ġfli pping","Ġfli ppy","Ġsepar ated","Ġsepar ates","Ġmus ical","ĠCo le","ĠSu pergirl","rist an","Ġclarify ing","Ġvolunte ers","Ad am","Ġser ve","Ġser ves","Ġser ious","Ġsqu igg","Ġli king","Ġpop corn","Ġadv anced","Gr ace","gr ader","Fif th","Graph ing","Int o","Int eresting","cl ock","go ing","Ġaud ience","Ġcreat ed","Ġdog s","Ġdog gone","Ġreread ing","Ġpoly hedron","Ġpoly gon","ĠBen ji","Ġroll er","Answ ers","Ġcounter clockwise","Ġscor ing","Ġrefresh er","Ġappear s","Ġemphas izing","Ġrespons es","Ph one","Ġcr ied","Ġcr unch","Ġswe et","Ġcup s","Ġlaugh ing","Ġinput ting","Ġrout es","Ġ29 4","Ġexper iment","ĠCass idy","ĠCass andra","Ġelimin ation","Ġelimin ate","Ġrecommend ed","ĠDe ath","ĠDe vin","ĠDan ny","Ġworksheet s","Ġcommun ic","Ann abel","Ann abella","Ġdifficul ty","Ġpocket s","Ac ute","Col or","Cub ic","Eas y","Joe y","Mod ify","Out standing","Po lyhedron","Res pond","Ray s","Rec iprocal","Sim plify","Tot al","Tot ally","han ical","iti ves","ĠSh ay","Ġwonder ing","Ġdel ay","Ġdel ta","Ġgif t","Ġgif ts","Ġpol ite","orn ia","Ġring ing","Ġche ating","Ġche aper","Ġpartnersh ip","Ġpartnersh ips","Ġaltern ate","Ġaltern ative","Ġintrod uced","Ġconsider ing","Ġdisapp ear","Ġimag ine","Ġvertic es","Ġvertic ally","ĠGr acie","Ġdescrib ing","Ġdistract ing","Ġdistract ed","Kell an","Ġpred iction","ĠNave ah","Ġdemonstr ate","Ġshove l","Dec ompose","Head s","Jus tify","Loc al","Opp s","Ren ee","Ret urn","Ty pically","Us ually","every thing","multi ply","Ġenc ourage","Ġtechn ology","Ġsass y","Ġban ana","Ġpuzz le","Ġnon sense","Ġlog s","Ġeff ective","Thir teen","Ġray s","Ġanimal s","Ġrepl acing","Ġfrustr ated","Ġsequ ence","Ġprogres sion","Ġchick ens","ĠBe th","Ġcond uctor","Ġcollab oration","ĠJoe y","Ġsport s","Ġsudd en","Ġdev il","Ġdevel oping","Ġgram mar","Ġacqu ainted","ĠChap man","Ġdisconnect ed","Quiet ly","Ġresour ces","Ġrespect ful","Ġswive ls","ĠAnn abella","Ġrelationsh ips","Conj ecture","Consider ing","Ġconjug ate","Ġpopul ation","Ġcharact er","Ġterrit orial","Ġmathematician s","Ġevalu ate","Repl icate","Aud rey","Bl ue","Bill s","El aina","Hor izontal","Honest ly","Lar gest","Mem or","Pard on","Pres s","Pyram id","Su per","Sw itch","Surf ace","Ta xes","Tay lor","bl ock","iqu e","laugh s","ser ve","Ġven om","ĠExpl oration","Ġtum my","ream s","Ġwise ly","Ġsch edule","Ġsiz es","Ġtomat o","Ġgain ed","Ġhung ry","Ġbac on","Ġmec hanical","Ġmention ed","Ġfol ks","Ġfund raising","Ġpent agon","Ġpra irie","Ġpeak s","Ġcum ulative","Ġcele brate","leng th","Ġnar rowed","Ġnast y","Ġlany ard","Ġegg s","Ġbead s","omet ry","Ġintern et","Ġiniti ally","Ġreph rase","Ġrearr ange","Ġsoft ware","Ġneck l","Ġnegat ives","Ġforce fully","ecra ft","Ġkick ball","Ġorang es","Ġoutli ers","Ġproced ures","Ġoverwh el","Ġchew ing","Ġpops icle","Ġconcl usion","ĠCalif ornia","ĠCecil ia","ĠBuc ks","Ġcoeffic ients","Ġunfin ished","Interpre t","Ġexpens ive","ĠYob urg","Ġgranol a","Expon ent","Expand ed","Ġafterno on","Ġscrib es","ĠGreen field","ĠTob ias","ĠPiggy Bank","ĠLuc ien","ĠLond on","ĠLeg acy","Ġenthus ias","Ġpurchase d","Ġinterru pt","Ġintermedi ate","Ġtransform ations","Ġentertain ment","DeAngel o","H eck","c o","h a","Ġj acket","Ġfor th","Ġequ aled","ch ange","blem s","ess ment","Ġpi le","Ġim pres","Ġquick er","ĠCh ris","Ch rist","16 7","Ġspec ify","Ġcut s","Be ing","Ġformul as","len a","As k","Ġass essment","Ġprism s","Pro blems","Ġidentify ing","Ha ven","ĠKay lie","Ġsmart board","Ġassign ed","Ġslow ly","Ġcommun icate","ĠNave a","Kat ie","Ġsaving s","Stud y","Christ ine",") |||","= ?|||","y cle","||| $","||| [","Ġn ormal","Ġsh ut","Ġas ide","-- ?","ĠR ach","Ġrec ycle",".\"||| [","Ġloc ate","ĠBr ooke","Le arning","Ar ina","Ġmotiv ational","Ġshove ls","Ġgrand ma","Ġscen ario","Ġindiv idual","âĢĿ |||","Ġp ause","an ti","Ġqu anti","ĠE m","Ġreach ed","Ġquanti ty",", -","b ra","c ount","||| .|||",".||| ?","is ney","ge bra","Ġal gebra","ĠD isney","Ġdrive way","Ġcover ing","Ġgrad ing","S cribe","n ine","Ġex cellent","ra p","Ġ4 9","ĠS age","Ġkit s","fold ed","Ġblind folded","int ed","Ġpr inted","enti le","Cal cul","Ġperc entile","' .|||","T om","or row","Ġe pic","ĠM ister","Ġinfin itely","Ġret urn","Tom orrow","% .",") (",") <",") >",") -(",", +","- ,","/ âĪļ","0 50","0 45","1 12","1 36","2 30","2 13","3 10","3 000","3 Â³","3 45","4 10","5 9","5 12","5 70","6 2","6 3","6 7","6 40","6 93","7 3","7 34","7 29","7 900","8 50","8 15","8 14","8 13","8 300","8 99","8 82","9 5","9 Â²","A E","A S","A p","A w","A ver","A ly","A ug","A round","A nderson","A lex","A cademic","A utumn","A ntonio","B X","B en","B ro","B el","B il","B eck","B ird","B ert","B ump","B aby","B reak","B ritney","C ou",
[...]
